{
  "version": "1.0",
  "truncation": null,
  "padding": null,
  "added_tokens": [
    {
      "id": 0,
      "content": "<pad>",
      "single_word": false,
      "lstrip": false,
      "rstrip": false,
      "normalized": false,
      "special": true
    },
    {
      "id": 1,
      "content": "<eos>",
      "single_word": false,
      "lstrip": false,
      "rstrip": false,
      "normalized": false,
      "special": true
    },
    {
      "id": 2,
      "content": "<unk>",
      "single_word": false,
      "lstrip": false,
      "rstrip": false,
      "normalized": false,
      "special": true
    }
  ],
  "normalizer": null,
  "pre_tokenizer": {
    "type": "Metaspace",
    "replacement": "▁",
    "prepend_scheme": "always",
    "split": true
  },
  "post_processor": null,
  "decoder": {
    "type": "Metaspace",
    "replacement": "▁",
    "prepend_scheme": "always",
    "split": true
  },
  "model": {
    "type": "Unigram",
    "unk_id": 2,
    "vocab": [
      [
        "<pad>",
        0.0
      ],
      [
        "<eos>",
        0.0
      ],
      [
        "<unk>",
        0.0
      ],
      [
        "▁the",
        -3.3236768239074763
      ],
      [
        "s",
        -3.5328913858771003
      ],
      [
        "▁",
        -3.662628994645827
      ],
      [
        ",",
        -3.734501633853272
      ],
      [
        ".",
        -3.759325188295989
      ],
      [
        "▁a",
        -4.0511933959207465
      ],
      [
        "▁to",
        -4.110846761078017
      ],
      [
        "▁of",
        -4.217896921253898
      ],
      [
        "▁and",
        -4.227002897628527
      ],
      [
        "▁in",
        -4.462008653258755
      ],
      [
        "▁is",
        -4.670759301894037
      ],
      [
        "ing",
        -5.056393655659855
      ],
      [
        "t",
        -5.058932225878966
      ],
      [
        "ed",
        -5.121211347447723
      ],
      [
        ":",
        -5.142054278997824
      ],
      [
        "a",
        -5.215406418515789
      ],
      [
        "d",
        -5.222800014717386
      ],
      [
        "▁that",
        -5.230589298681775
      ],
      [
        "▁for",
        -5.250965584618891
      ],
      [
        "e",
        -5.359956260351266
      ],
      [
        "▁on",
        -5.434654300586992
      ],
      [
        "▁with",
        -5.495584107190423
      ],
      [
        "▁was",
        -5.4998429804055196
      ],
      [
        "▁The",
        -5.499900654459347
      ],
      [
        "y",
        -5.524851390942404
      ],
      [
        "-",
        -5.564142699765194
      ],
      [
        "▁I",
        -5.603485466176716
      ],
      [
        "'s",
        -5.624808579298774
      ],
      [
        "▁it",
        -5.630524983817695
      ],
      [
        "▁-",
        -5.6725461964075645
      ],
      [
        "?",
        -5.691761692526175
      ],
      [
        "▁this",
        -5.7019710433608335
      ],
      [
        "▁are",
        -5.711429313044325
      ],
      [
        "n",
        -5.712894756766724
      ],
      [
        "▁you",
        -5.791143642724018
      ],
      [
        "▁be",
        -5.825711257118449
      ],
      [
        "▁as",
        -5.856454093967798
      ],
      [
        "▁answer",
        -5.860909823407777
      ],
      [
        "▁by",
        -5.869648298249123
      ],
      [
        "r",
        -5.870064854200892
      ],
      [
        "▁from",
        -5.873913037611285
      ],
      [
        "er",
        -5.90550502508164
      ],
      [
        "ly",
        -5.9551672212257785
      ],
      [
        "▁an",
        -5.9654942035631535
      ],
      [
        "o",
        -5.971310490749152
      ],
      [
        "▁he",
        -5.98636926166577
      ],
      [
        "▁at",
        -6.0115749015558375
      ],
      [
        "▁or",
        -6.021189231344213
      ],
      [
        "i",
        -6.021944171043945
      ],
      [
        "▁his",
        -6.034094117936133
      ],
      [
        "▁have",
        -6.091315703092116
      ],
      [
        "▁not",
        -6.121564575779914
      ],
      [
        "▁A",
        -6.184657095857778
      ],
      [
        "f",
        -6.196929928502453
      ],
      [
        ")",
        -6.203747617212777
      ],
      [
        "▁following",
        -6.21515535874005
      ],
      [
        "al",
        -6.2444282515399046
      ],
      [
        "\"",
        -6.287395930488987
      ],
      [
        "in",
        -6.31998197293489
      ],
      [
        "or",
        -6.335198262821587
      ],
      [
        "on",
        -6.3402291097761
      ],
      [
        "▁her",
        -6.347845098568097
      ],
      [
        "s.",
        -6.353770300793652
      ],
      [
        "▁can",
        -6.366495065320072
      ],
      [
        "s,",
        -6.368880355559744
      ],
      [
        "▁has",
        -6.370560300614967
      ],
      [
        "▁but",
        -6.4388645857034295
      ],
      [
        "▁\"",
        -6.4579584602155276
      ],
      [
        "▁(",
        -6.461619165353753
      ],
      [
        "▁about",
        -6.474945594818259
      ],
      [
        "▁In",
        -6.487113198276109
      ],
      [
        "▁your",
        -6.544970319907838
      ],
      [
        "p",
        -6.559074565842868
      ],
      [
        "▁will",
        -6.563704061080262
      ],
      [
        "▁their",
        -6.56628822821942
      ],
      [
        "▁one",
        -6.566914295925249
      ],
      [
        "▁they",
        -6.576010980616401
      ],
      [
        "th",
        -6.580268376855836
      ],
      [
        "▁question",
        -6.624774126528589
      ],
      [
        "▁had",
        -6.655441819607235
      ],
      [
        "c",
        -6.6711381207499905
      ],
      [
        "es",
        -6.672727456558791
      ],
      [
        "▁she",
        -6.6766495179332335
      ],
      [
        "▁who",
        -6.694669914799885
      ],
      [
        "▁more",
        -6.708997429348308
      ],
      [
        "▁C",
        -6.709026060745412
      ],
      [
        "an",
        -6.719745239936534
      ],
      [
        "▁out",
        -6.7259875437686745
      ],
      [
        "▁S",
        -6.727157680084757
      ],
      [
        "b",
        -6.7276689209040175
      ],
      [
        "▁which",
        -6.74080293405526
      ],
      [
        "▁do",
        -6.752421005485214
      ],
      [
        "▁were",
        -6.765966909565819
      ],
      [
        "m",
        -6.775973145174477
      ],
      [
        "▁all",
        -6.777416104511456
      ],
      [
        "▁up",
        -6.786154081901076
      ],
      [
        "▁what",
        -6.788030517841731
      ],
      [
        "l",
        -6.797176187452912
      ],
      [
        "▁'",
        -6.808839006784984
      ],
      [
        "▁He",
        -6.809650724353499
      ],
      [
        "le",
        -6.822764185823255
      ],
      [
        "▁we",
        -6.845051795084135
      ],
      [
        "re",
        -6.8541329854310185
      ],
      [
        "▁sentence",
        -6.8561727305701705
      ],
      [
        "▁first",
        -6.86458597341959
      ],
      [
        "▁no",
        -6.864598253377283
      ],
      [
        "▁so",
        -6.872113573334495
      ],
      [
        "▁re",
        -6.876084066025914
      ],
      [
        "▁What",
        -6.879624143303262
      ],
      [
        "h",
        -6.882947340092947
      ],
      [
        "▁would",
        -6.889310693293307
      ],
      [
        ";",
        -6.889899644737268
      ],
      [
        "▁question:",
        -6.889988020094762
      ],
      [
        "▁two",
        -6.899390347333576
      ],
      [
        "▁into",
        -6.904435760398698
      ],
      [
        "is",
        -6.904520351068674
      ],
      [
        "ic",
        -6.908684886343119
      ],
      [
        "en",
        -6.914588609476974
      ],
      [
        "'",
        -6.929671255548888
      ],
      [
        "▁when",
        -6.940635046713755
      ],
      [
        "it",
        -6.955486852058057
      ],
      [
        "▁my",
        -6.955736316788988
      ],
      [
        "▁if",
        -6.968580082871265
      ],
      [
        "ation",
        -6.972891346162777
      ],
      [
        "▁B",
        -6.979521269975304
      ],
      [
        "k",
        -6.992198244080228
      ],
      [
        "g",
        -6.99318497306953
      ],
      [
        "u",
        -7.004893798983312
      ],
      [
        "▁me",
        -7.00555379863844
      ],
      [
        ".\"",
        -7.027068122461925
      ],
      [
        "▁other",
        -7.037541483963794
      ],
      [
        "▁people",
        -7.045157486689789
      ],
      [
        "▁also",
        -7.0456716796393195
      ],
      [
        "▁how",
        -7.066169365832202
      ],
      [
        "▁been",
        -7.07507537109003
      ],
      [
        "▁like",
        -7.089680423500434
      ],
      [
        "▁than",
        -7.119319755969819
      ],
      [
        "▁It",
        -7.123366117371145
      ],
      [
        ".\n",
        -7.131488513766415
      ],
      [
        "▁after",
        -7.134267572593036
      ],
      [
        "▁some",
        -7.141092134990203
      ],
      [
        "w",
        -7.143119010224664
      ],
      [
        "▁many",
        -7.148370890502001
      ],
      [
        "▁over",
        -7.15081591330868
      ],
      [
        "▁there",
        -7.158796031935186
      ],
      [
        "▁19",
        -7.1589582469653354
      ],
      [
        "at",
        -7.162244368179305
      ],
      [
        "ri",
        -7.182008361072759
      ],
      [
        "▁time",
        -7.185534112558074
      ],
      [
        "▁Question:",
        -7.193285816410894
      ],
      [
        "▁new",
        -7.220599945270573
      ],
      [
        "▁said",
        -7.226623247875775
      ],
      [
        "il",
        -7.240266573025226
      ],
      [
        "ar",
        -7.2409614925809755
      ],
      [
        "ion",
        -7.251876016488483
      ],
      [
        "▁E",
        -7.277308900308228
      ],
      [
        "el",
        -7.279034196224806
      ],
      [
        "▁them",
        -7.2818475282730475
      ],
      [
        ").",
        -7.291329262840344
      ],
      [
        "\n",
        -7.2966280592467925
      ],
      [
        "▁him",
        -7.297322957589307
      ],
      [
        "▁Re",
        -7.299757669144146
      ],
      [
        "▁given",
        -7.302447449341754
      ],
      [
        "▁If",
        -7.306531647272671
      ],
      [
        "▁\n",
        -7.311369773359578
      ],
      [
        "▁does",
        -7.329043266560911
      ],
      [
        "ter",
        -7.3335398338491515
      ],
      [
        ".\n\n",
        -7.335286836644402
      ],
      [
        "▁get",
        -7.33869030250257
      ],
      [
        "▁make",
        -7.346661986388771
      ],
      [
        "▁F",
        -7.348805010544067
      ],
      [
        "ne",
        -7.357715915233861
      ],
      [
        "ment",
        -7.357874880151336
      ],
      [
        "te",
        -7.369938383205728
      ],
      [
        "▁most",
        -7.378590648204822
      ],
      [
        "▁Given",
        -7.394955664311798
      ],
      [
        "ce",
        -7.39692190831294
      ],
      [
        "▁just",
        -7.39703623340232
      ],
      [
        "ive",
        -7.399050335066587
      ],
      [
        "▁did",
        -7.4032245629236595
      ],
      [
        "▁D",
        -7.405545735596586
      ],
      [
        "ur",
        -7.413480187438591
      ],
      [
        "▁its",
        -7.4325061243614545
      ],
      [
        "ers",
        -7.438562292267672
      ],
      [
        "ent",
        -7.4398185732863755
      ],
      [
        "▁only",
        -7.440570951333228
      ],
      [
        "ma",
        -7.444162467610687
      ],
      [
        "us",
        -7.448590802752525
      ],
      [
        "A",
        -7.452299112329596
      ],
      [
        "▁back",
        -7.453367184654152
      ],
      [
        "▁=",
        -7.459248845835214
      ],
      [
        "ro",
        -7.462374338160238
      ],
      [
        "se",
        -7.468441037530731
      ],
      [
        "I",
        -7.469125962725842
      ],
      [
        "▁This",
        -7.477445684271041
      ],
      [
        "▁c",
        -7.482499113528295
      ],
      [
        "ch",
        -7.484226836291221
      ],
      [
        "▁man",
        -7.488035930355814
      ],
      [
        "▁should",
        -7.4894541341521315
      ],
      [
        "▁And",
        -7.489465397384546
      ],
      [
        "S",
        -7.494645431332794
      ],
      [
        "id",
        -7.500806899646474
      ],
      [
        "▁Sentence",
        -7.5015438195460025
      ],
      [
        "▁P",
        -7.505471734609028
      ],
      [
        "ul",
        -7.5137552348070535
      ],
      [
        "as",
        -7.513943858256495
      ],
      [
        "▁T",
        -7.516203490009435
      ],
      [
        "▁You",
        -7.517348149933049
      ],
      [
        "ity",
        -7.52285198121842
      ],
      [
        "▁W",
        -7.524004216072235
      ],
      [
        "▁How",
        -7.527391224416631
      ],
      [
        "▁where",
        -7.528153025383464
      ],
      [
        "▁each",
        -7.536605037884831
      ],
      [
        "▁these",
        -7.540448925226169
      ],
      [
        "la",
        -7.54263999443142
      ],
      [
        "▁She",
        -7.544426736869438
      ],
      [
        "/",
        -7.551706602601559
      ],
      [
        "ol",
        -7.553772813263878
      ],
      [
        "M",
        -7.555802762435956
      ],
      [
        "age",
        -7.556544623224491
      ],
      [
        "▁de",
        -7.557658270070501
      ],
      [
        "▁very",
        -7.559122427769763
      ],
      [
        "▁To",
        -7.559568356607404
      ],
      [
        "able",
        -7.561539966224911
      ],
      [
        "2",
        -7.561787569572665
      ],
      [
        "▁G",
        -7.5623752585259485
      ],
      [
        "▁know",
        -7.562531127020094
      ],
      [
        "!",
        -7.580145898791979
      ],
      [
        "▁good",
        -7.5823705074122
      ],
      [
        "T",
        -7.5844551223094125
      ],
      [
        "ll",
        -7.587951366413149
      ],
      [
        "▁p",
        -7.589071656092363
      ],
      [
        "▁3",
        -7.591263500306949
      ],
      [
        "▁much",
        -7.59508453183985
      ],
      [
        "▁go",
        -7.596022060401815
      ],
      [
        "▁may",
        -7.597972834339567
      ],
      [
        "C",
        -7.598008302064766
      ],
      [
        "),",
        -7.60414751821364
      ],
      [
        "▁because",
        -7.612430182754993
      ],
      [
        "▁work",
        -7.615306137529924
      ],
      [
        "▁think",
        -7.615725241913633
      ],
      [
        "▁1",
        -7.617365812308039
      ],
      [
        "▁same",
        -7.62011604746788
      ],
      [
        "to",
        -7.62071605931567
      ],
      [
        "▁For",
        -7.620821841641757
      ],
      [
        "▁any",
        -7.623702377177045
      ],
      [
        "▁before",
        -7.625708868683727
      ],
      [
        "▁could",
        -7.632366457395381
      ],
      [
        "x",
        -7.6343239976377735
      ],
      [
        "▁2",
        -7.63953627177124
      ],
      [
        "P",
        -7.641011166432257
      ],
      [
        "▁use",
        -7.644058075051339
      ],
      [
        "▁being",
        -7.6450248380611345
      ],
      [
        "▁then",
        -7.64529960527549
      ],
      [
        "z",
        -7.6493813111688755
      ],
      [
        "?\n",
        -7.656201916283774
      ],
      [
        "▁down",
        -7.656291967559525
      ],
      [
        "▁5",
        -7.65863146041635
      ],
      [
        "▁i",
        -7.661865786192468
      ],
      [
        "▁Please",
        -7.66315246141837
      ],
      [
        "de",
        -7.664728867277789
      ],
      [
        "ate",
        -7.664799172587379
      ],
      [
        "E",
        -7.6657309337226405
      ],
      [
        "man",
        -7.671359632547196
      ],
      [
        "▁un",
        -7.6715146707677295
      ],
      [
        "▁through",
        -7.672752630110789
      ],
      [
        "mp",
        -7.681222505109812
      ],
      [
        "est",
        -7.689011591218483
      ],
      [
        "B",
        -7.6932825419729305
      ],
      [
        "▁Question",
        -7.695182584867863
      ],
      [
        "▁while",
        -7.695993215557008
      ],
      [
        "▁help",
        -7.697154346255699
      ],
      [
        "▁possible",
        -7.705680411510933
      ],
      [
        "ian",
        -7.711990030442681
      ],
      [
        "ve",
        -7.713170685882458
      ],
      [
        "▁They",
        -7.714881967549575
      ],
      [
        "▁film",
        -7.714957706072358
      ],
      [
        "li",
        -7.7226929916287546
      ],
      [
        "L",
        -7.723746134014641
      ],
      [
        "ir",
        -7.724137433290231
      ],
      [
        "▁water",
        -7.725293546506903
      ],
      [
        "▁see",
        -7.727369446491153
      ],
      [
        "▁want",
        -7.727907870131256
      ],
      [
        "▁movie",
        -7.730006664816882
      ],
      [
        "▁say",
        -7.7378631241102624
      ],
      [
        "▁Answer",
        -7.740319138216098
      ],
      [
        "D",
        -7.741748514331
      ],
      [
        "\n-",
        -7.749734058461362
      ],
      [
        "▁best",
        -7.752170019038411
      ],
      [
        "▁way",
        -7.7549449743690495
      ],
      [
        "▁food",
        -7.759780851134739
      ],
      [
        "▁years",
        -7.7606887438336045
      ],
      [
        "▁Review",
        -7.764480597394201
      ],
      [
        "me",
        -7.765960995628575
      ],
      [
        "▁De",
        -7.769593431071671
      ],
      [
        "▁4",
        -7.771989177086507
      ],
      [
        "▁three",
        -7.77327802339167
      ],
      [
        "▁name",
        -7.773332158879429
      ],
      [
        "]",
        -7.7743790891858175
      ],
      [
        "lo",
        -7.777091600286129
      ],
      [
        "▁need",
        -7.777632436666821
      ],
      [
        "O",
        -7.790532129401834
      ],
      [
        "ver",
        -7.798597727707314
      ],
      [
        "am",
        -7.7999011956465925
      ],
      [
        "▁review",
        -7.80049547098889
      ],
      [
        "▁next",
        -7.800962486766181
      ],
      [
        "▁second",
        -7.802299671344448
      ],
      [
        "▁take",
        -7.802841196302726
      ],
      [
        "▁between",
        -7.8081582438382355
      ],
      [
        "▁M",
        -7.814473397827939
      ],
      [
        "▁home",
        -7.815423247418639
      ],
      [
        "▁made",
        -7.818949185732745
      ],
      [
        "ge",
        -7.824259597864103
      ],
      [
        "▁last",
        -7.827796871859972
      ],
      [
        "▁number",
        -7.831804897413905
      ],
      [
        "1",
        -7.83228225968668
      ],
      [
        "▁car",
        -7.836087723185102
      ],
      [
        "▁off",
        -7.836371228765666
      ],
      [
        "▁used",
        -7.837978687005403
      ],
      [
        "um",
        -7.838619666784652
      ],
      [
        "▁text",
        -7.841583802018532
      ],
      [
        "▁such",
        -7.845637467558845
      ],
      [
        "▁is:",
        -7.860232778943423
      ],
      [
        "▁day",
        -7.86471090837726
      ],
      [
        "im",
        -7.864772065774282
      ],
      [
        "ck",
        -7.864801062951029
      ],
      [
        "ies",
        -7.865389504433594
      ],
      [
        "v",
        -7.865880368946508
      ],
      [
        "▁end",
        -7.866478418231143
      ],
      [
        "▁part",
        -7.87514496621224
      ],
      [
        "▁New",
        -7.87902664982793
      ],
      [
        "▁K",
        -7.883568158368032
      ],
      [
        "▁\"A",
        -7.8836343009518455
      ],
      [
        "▁tell",
        -7.884051379106758
      ],
      [
        "ry",
        -7.885379612182897
      ],
      [
        "ant",
        -7.890776506876124
      ],
      [
        "▁our",
        -7.890939042031603
      ],
      [
        "▁con",
        -7.892093458895779
      ],
      [
        "ary",
        -7.894111540833865
      ],
      [
        "ill",
        -7.8943202295702335
      ],
      [
        "▁above",
        -7.897887345141296
      ],
      [
        "▁around",
        -7.901510367108159
      ],
      [
        "Answer:",
        -7.904063759455751
      ],
      [
        "▁st",
        -7.904196478684961
      ],
      [
        "▁article",
        -7.905511848652861
      ],
      [
        "▁under",
        -7.907502356392783
      ],
      [
        "',",
        -7.91004206256437
      ],
      [
        "no",
        -7.913937904888861
      ],
      [
        "▁now",
        -7.916759440476861
      ],
      [
        "▁We",
        -7.924246847197175
      ],
      [
        "▁But",
        -7.92692632277879
      ],
      [
        "▁found",
        -7.9292358772505125
      ],
      [
        "▁person",
        -7.932767098474537
      ],
      [
        "▁O",
        -7.934300684550202
      ],
      [
        "▁find",
        -7.935164058178623
      ],
      [
        "▁Q:",
        -7.939162904493465
      ],
      [
        ",\"",
        -7.949494472246732
      ],
      [
        "▁school",
        -7.9511206620212
      ],
      [
        "▁10",
        -7.9541442805933364
      ],
      [
        "tic",
        -7.96048804744424
      ],
      [
        "be",
        -7.962242718816546
      ],
      [
        "▁less",
        -7.9650605883221015
      ],
      [
        "ci",
        -7.967963895170399
      ],
      [
        "▁N",
        -7.974724997623353
      ],
      [
        "mi",
        -7.986258152098735
      ],
      [
        "▁When",
        -7.987917801491477
      ],
      [
        "▁place",
        -7.991182602637803
      ],
      [
        "▁information",
        -7.991290063278104
      ],
      [
        "▁correct",
        -7.992087721784287
      ],
      [
        "▁long",
        -7.996628989055656
      ],
      [
        "▁every",
        -7.9996515901550485
      ],
      [
        "▁Ma",
        -8.001304245452127
      ],
      [
        "▁St",
        -8.002648932823517
      ],
      [
        "▁even",
        -8.004548223249925
      ],
      [
        "▁g",
        -8.005811900662687
      ],
      [
        "co",
        -8.011720119316502
      ],
      [
        "▁well",
        -8.012543165621581
      ],
      [
        "▁English",
        -8.014325306110813
      ],
      [
        "▁right",
        -8.014688672678734
      ],
      [
        "▁b",
        -8.017630692565035
      ],
      [
        "▁18",
        -8.02120580983127
      ],
      [
        "ated",
        -8.02510432549551
      ],
      [
        "▁Write",
        -8.025252290150162
      ],
      [
        "▁group",
        -8.033623884013119
      ],
      [
        "F",
        -8.034549174425338
      ],
      [
        "▁--",
        -8.044082732494578
      ],
      [
        "ke",
        -8.046316982754117
      ],
      [
        "▁year",
        -8.046577414871884
      ],
      [
        "nd",
        -8.052271876617242
      ],
      [
        "▁both",
        -8.05949265709805
      ],
      [
        "ha",
        -8.060580695719299
      ],
      [
        "ting",
        -8.062657995866054
      ],
      [
        "un",
        -8.063987496861184
      ],
      [
        "▁No",
        -8.064074941956642
      ],
      [
        "(",
        -8.067187510563398
      ],
      [
        "▁life",
        -8.07058718257218
      ],
      [
        "▁story",
        -8.075312682052573
      ],
      [
        "▁different",
        -8.085266145211246
      ],
      [
        "▁during",
        -8.086029702136662
      ],
      [
        "▁Do",
        -8.093630722693659
      ],
      [
        "\",",
        -8.093827315028104
      ],
      [
        "ho",
        -8.097557610864188
      ],
      [
        "▁Co",
        -8.100262702002697
      ],
      [
        "G",
        -8.102111581518894
      ],
      [
        "▁house",
        -8.103273494329152
      ],
      [
        "ance",
        -8.103824682985794
      ],
      [
        "▁list",
        -8.105446146594373
      ],
      [
        "he",
        -8.112507418103554
      ],
      [
        "▁am",
        -8.113652226052448
      ],
      [
        "▁After",
        -8.115400948046213
      ],
      [
        "N",
        -8.115407413878387
      ],
      [
        "▁don't",
        -8.120548569800182
      ],
      [
        "▁city",
        -8.120688397536917
      ],
      [
        "▁Mo",
        -8.12366615386921
      ],
      [
        "▁\"The",
        -8.124632621164036
      ],
      [
        "’s",
        -8.128190233476989
      ],
      [
        "▁On",
        -8.128523662831052
      ],
      [
        "▁own",
        -8.12871502346766
      ],
      [
        "up",
        -8.132313027454373
      ],
      [
        "▁H",
        -8.13345312919654
      ],
      [
        "sh",
        -8.133834214027274
      ],
      [
        "▁based",
        -8.136575579536736
      ],
      [
        "▁di",
        -8.137749367099897
      ],
      [
        "▁Con",
        -8.137851101172151
      ],
      [
        "▁short",
        -8.138526771621962
      ],
      [
        "▁family",
        -8.14602740600859
      ],
      [
        "▁using",
        -8.147194427489152
      ],
      [
        "▁So",
        -8.147698524779733
      ],
      [
        "pe",
        -8.150433394170799
      ],
      [
        "▁process",
        -8.15327131686228
      ],
      [
        "▁still",
        -8.1570466333225
      ],
      [
        "\n\n",
        -8.157770319399496
      ],
      [
        "▁those",
        -8.158475004210718
      ],
      [
        "▁money",
        -8.159956763055627
      ],
      [
        "▁Ca",
        -8.16247469748058
      ],
      [
        "▁game",
        -8.163214509329984
      ],
      [
        "land",
        -8.165834014616156
      ],
      [
        "▁hypothesis",
        -8.166316096722143
      ],
      [
        "the",
        -8.169007662330054
      ],
      [
        "gu",
        -8.171068674353721
      ],
      [
        "▁left",
        -8.171757742199595
      ],
      [
        "▁got",
        -8.175176322992339
      ],
      [
        "▁per",
        -8.175613600779066
      ],
      [
        "ph",
        -8.175727347363555
      ],
      [
        "H",
        -8.182352434015378
      ],
      [
        "▁area",
        -8.184864657909428
      ],
      [
        "▁called",
        -8.185841944569288
      ],
      [
        "?\"",
        -8.187931113649308
      ],
      [
        "▁American",
        -8.18966290900094
      ],
      [
        "W",
        -8.189968110992112
      ],
      [
        "▁another",
        -8.191161882376184
      ],
      [
        "▁step",
        -8.1952679376923
      ],
      [
        "▁going",
        -8.203272125853474
      ],
      [
        "▁state",
        -8.205271125058564
      ],
      [
        "ial",
        -8.206622462763923
      ],
      [
        "▁children",
        -8.2080514167658
      ],
      [
        "\".",
        -8.209645074341402
      ],
      [
        "▁calculation",
        -8.211635970477571
      ],
      [
        "ish",
        -8.213039872014205
      ],
      [
        "▁small",
        -8.21519971148893
      ],
      [
        "▁Be",
        -8.215537358688803
      ],
      [
        "▁set",
        -8.216441345736108
      ],
      [
        "▁6",
        -8.22042853006136
      ],
      [
        "ous",
        -8.220889208720282
      ],
      [
        "mo",
        -8.22121660607276
      ],
      [
        "▁come",
        -8.222657351472797
      ],
      [
        "▁As",
        -8.22312909879246
      ],
      [
        "▁book",
        -8.22426896743509
      ],
      [
        "ence",
        -8.224335129468521
      ],
      [
        "00",
        -8.226026062738516
      ],
      [
        "va",
        -8.229225577446865
      ],
      [
        "...",
        -8.231665464852084
      ],
      [
        "R",
        -8.236909671326538
      ],
      [
        "▁us",
        -8.238582353171294
      ],
      [
        "▁high",
        -8.240272960254053
      ],
      [
        "▁positive",
        -8.240593717364845
      ],
      [
        "▁too",
        -8.244060432819
      ],
      [
        "_",
        -8.250084506147797
      ],
      [
        "▁Ro",
        -8.257359985634254
      ],
      [
        "▁old",
        -8.259751867366615
      ],
      [
        "3",
        -8.260215782495958
      ],
      [
        "▁few",
        -8.262104725230007
      ],
      [
        "and",
        -8.262153841021675
      ],
      [
        "▁night",
        -8.264589393140602
      ],
      [
        "▁United",
        -8.266667745686087
      ],
      [
        "vi",
        -8.275995792537154
      ],
      [
        "U",
        -8.277552775475893
      ],
      [
        "di",
        -8.277593650376922
      ],
      [
        "▁great",
        -8.278111107501228
      ],
      [
        "min",
        -8.279963736740324
      ],
      [
        "▁There",
        -8.281124358794509
      ],
      [
        "▁Which",
        -8.281688179510393
      ],
      [
        "▁R",
        -8.28178543631742
      ],
      [
        "5",
        -8.28416495658656
      ],
      [
        "▁test",
        -8.285108520618483
      ],
      [
        "▁show",
        -8.287437767921276
      ],
      [
        "▁data",
        -8.287586226683898
      ],
      [
        "▁play",
        -8.287683070618565
      ],
      [
        "ut",
        -8.28890813746123
      ],
      [
        "if",
        -8.28949114780455
      ],
      [
        "ten",
        -8.290047318314114
      ],
      [
        "▁read",
        -8.290516628293375
      ],
      [
        "go",
        -8.29290016675326
      ],
      [
        "▁Article:",
        -8.293967483268295
      ],
      [
        "▁country",
        -8.29706829219284
      ],
      [
        "▁language",
        -8.29710742069778
      ],
      [
        "▁L",
        -8.299643464789137
      ],
      [
        "way",
        -8.299863018014891
      ],
      [
        "▁job",
        -8.300620522069527
      ],
      [
        "▁La",
        -8.300800206688773
      ],
      [
        "▁known",
        -8.3013608867268
      ],
      [
        "▁put",
        -8.301501856319007
      ],
      [
        "▁dis",
        -8.304075873479993
      ],
      [
        "▁something",
        -8.31080325151154
      ],
      [
        "▁Ba",
        -8.313882999129044
      ],
      [
        "\nA",
        -8.314218278732724
      ],
      [
        "per",
        -8.315030926245365
      ],
      [
        "ling",
        -8.317571342833892
      ],
      [
        "0",
        -8.322226476777645
      ],
      [
        "▁love",
        -8.322943021149461
      ],
      [
        "▁Ra",
        -8.3242757966618
      ],
      [
        "em",
        -8.325777632353946
      ],
      [
        "ster",
        -8.326015990672694
      ],
      [
        "ted",
        -8.327376487801788
      ],
      [
        "▁20",
        -8.327403219447328
      ],
      [
        "▁premise",
        -8.33018695735149
      ],
      [
        "▁head",
        -8.330218536561976
      ],
      [
        "line",
        -8.33065939710679
      ],
      [
        "▁enough",
        -8.33184542005956
      ],
      [
        "▁team",
        -8.33209942026995
      ],
      [
        "▁music",
        -8.3332294215708
      ],
      [
        "mb",
        -8.333464070016937
      ],
      [
        "▁At",
        -8.333743706690477
      ],
      [
        "▁Li",
        -8.33934491881543
      ],
      [
        "4",
        -8.340546195114285
      ],
      [
        "▁give",
        -8.340735613829287
      ],
      [
        "▁ch",
        -8.3426258852208
      ],
      [
        "▁away",
        -8.345318577511744
      ],
      [
        "▁keep",
        -8.346538709639292
      ],
      [
        "do",
        -8.346589648748218
      ],
      [
        "▁it's",
        -8.3470795625751
      ],
      [
        "ness",
        -8.349477164436259
      ],
      [
        "▁since",
        -8.34958495636456
      ],
      [
        "ga",
        -8.350329569319207
      ],
      [
        "▁8",
        -8.351764479092827
      ],
      [
        "▁system",
        -8.35516936261641
      ],
      [
        "▁Read",
        -8.355362950424091
      ],
      [
        "▁world",
        -8.355483114932513
      ],
      [
        "▁body",
        -8.356285873445907
      ],
      [
        "V",
        -8.357701442050898
      ],
      [
        "▁four",
        -8.358156411390391
      ],
      [
        "ner",
        -8.358777538270397
      ],
      [
        "▁Al",
        -8.359799923327488
      ],
      [
        "▁passage",
        -8.359954862224887
      ],
      [
        "▁Movie",
        -8.363759337972375
      ],
      [
        "▁might",
        -8.365377094547469
      ],
      [
        "ating",
        -8.366345085772494
      ],
      [
        "▁mean",
        -8.370676958581006
      ],
      [
        "▁friend",
        -8.370796842371107
      ],
      [
        "▁things",
        -8.372215756453278
      ],
      [
        "ven",
        -8.372395163091566
      ],
      [
        "op",
        -8.373249806525635
      ],
      [
        "▁Analysis",
        -8.373836926605076
      ],
      [
        "ally",
        -8.37784667924769
      ],
      [
        "▁air",
        -8.37840737082185
      ],
      [
        "ect",
        -8.379251815234596
      ],
      [
        "▁woman",
        -8.380113056542202
      ],
      [
        "▁lot",
        -8.380554199075231
      ],
      [
        "▁really",
        -8.382798476840376
      ],
      [
        "▁ma",
        -8.383892202095582
      ],
      [
        "▁Po",
        -8.385306400626478
      ],
      [
        "king",
        -8.387769222183701
      ],
      [
        "▁against",
        -8.389387741534795
      ],
      [
        "▁product",
        -8.38989234333902
      ],
      [
        "-yard",
        -8.389931587373177
      ],
      [
        "▁room",
        -8.391006003234827
      ],
      [
        "▁never",
        -8.391194376671805
      ],
      [
        "▁students",
        -8.393440292678754
      ],
      [
        "▁paragraph",
        -8.395533144581437
      ],
      [
        "?\nAnswer",
        -8.396397667472074
      ],
      [
        "▁told",
        -8.396521098966055
      ],
      [
        "ard",
        -8.396840336120144
      ],
      [
        "ful",
        -8.400403639755694
      ],
      [
        "▁little",
        -8.401198523060867
      ],
      [
        "der",
        -8.404432310464456
      ],
      [
        "▁order",
        -8.404680857630856
      ],
      [
        "▁field",
        -8.405178038812824
      ],
      [
        "▁Me",
        -8.406350317221017
      ],
      [
        "▁band",
        -8.412080140344765
      ],
      [
        "▁always",
        -8.412291122824755
      ],
      [
        "▁must",
        -8.413701392031783
      ],
      [
        "▁negative",
        -8.41770554015276
      ],
      [
        "▁went",
        -8.41892402982331
      ],
      [
        "▁look",
        -8.419637012617976
      ],
      [
        "▁whether",
        -8.41970609825029
      ],
      [
        "▁large",
        -8.422582222825516
      ],
      [
        "ism",
        -8.42268269694631
      ],
      [
        "▁run",
        -8.42388555500545
      ],
      [
        "▁young",
        -8.428166508725038
      ],
      [
        "tion",
        -8.428337348519092
      ],
      [
        "▁feel",
        -8.42887706593283
      ],
      [
        "om",
        -8.429625697340771
      ],
      [
        "▁Car",
        -8.433127376766164
      ],
      [
        "▁words",
        -8.433594642007943
      ],
      [
        "▁task",
        -8.434647319088606
      ],
      [
        "K",
        -8.434918484731988
      ],
      [
        "▁7",
        -8.43590868088334
      ],
      [
        "one",
        -8.438843710124868
      ],
      [
        "▁Le",
        -8.440244650045738
      ],
      [
        "?\nA",
        -8.44158190763295
      ],
      [
        "ru",
        -8.441866355015284
      ],
      [
        "▁often",
        -8.442503219604482
      ],
      [
        "▁States",
        -8.44657662889634
      ],
      [
        "▁week",
        -8.447378380249503
      ],
      [
        "▁Ha",
        -8.447427511265506
      ],
      [
        "▁better",
        -8.449074637797423
      ],
      [
        "hi",
        -8.44952941566375
      ],
      [
        "▁hard",
        -8.449763470510403
      ],
      [
        "▁took",
        -8.45005577723408
      ],
      [
        "▁Is",
        -8.450196161790378
      ],
      [
        "▁My",
        -8.450226432281347
      ],
      [
        "▁friends",
        -8.450290929246156
      ],
      [
        "▁light",
        -8.45145055711565
      ],
      [
        "▁lead",
        -8.451986109570752
      ],
      [
        "ber",
        -8.45240168346045
      ],
      [
        "▁Pa",
        -8.453029158517358
      ],
      [
        "▁U",
        -8.45323365979955
      ],
      [
        "▁co",
        -8.454602087590816
      ],
      [
        "▁until",
        -8.454751806348481
      ],
      [
        "▁An",
        -8.456136368964899
      ],
      [
        "▁half",
        -8.457009309560426
      ],
      [
        "con",
        -8.457377310398966
      ],
      [
        "▁total",
        -8.458723967559935
      ],
      [
        "less",
        -8.462511481422323
      ],
      [
        "▁pre",
        -8.463721553621216
      ],
      [
        "sion",
        -8.463943383028143
      ],
      [
        "▁12",
        -8.46552118685403
      ],
      [
        "▁why",
        -8.469304403559192
      ],
      [
        "▁thought",
        -8.47020136080682
      ],
      [
        "▁form",
        -8.472582282731784
      ],
      [
        "▁please",
        -8.474909492345938
      ],
      [
        "▁Can",
        -8.479392160736236
      ],
      [
        "▁buy",
        -8.480609687490851
      ],
      [
        "▁write",
        -8.482383891881158
      ],
      [
        "▁live",
        -8.484019197178165
      ],
      [
        "tra",
        -8.485494483232424
      ],
      [
        "▁Bo",
        -8.486671325513775
      ],
      [
        ".\nThe",
        -8.486855943475847
      ],
      [
        "▁without",
        -8.486971996008611
      ],
      [
        "▁Ho",
        -8.487156567677793
      ],
      [
        "▁hand",
        -8.488314596599823
      ],
      [
        "▁important",
        -8.488867756224602
      ],
      [
        "▁days",
        -8.492808194011825
      ],
      [
        "▁says",
        -8.4945357043737
      ],
      [
        "▁pro",
        -8.495339064413743
      ],
      [
        "ning",
        -8.497443332490437
      ],
      [
        "▁thing",
        -8.498650264751577
      ],
      [
        "▁album",
        -8.498699288005273
      ],
      [
        "▁natural",
        -8.49924291871443
      ],
      [
        "▁pass",
        -8.5013063252431
      ],
      [
        "*",
        -8.501307975676882
      ],
      [
        "ca",
        -8.501387098354277
      ],
      [
        "ig",
        -8.504423427718026
      ],
      [
        "▁Mar",
        -8.507597626889705
      ],
      [
        "ley",
        -8.507611079263484
      ],
      [
        "▁plot",
        -8.508403405279187
      ],
      [
        "▁+",
        -8.51106382252747
      ],
      [
        "▁Here",
        -8.511940856503335
      ],
      [
        "lic",
        -8.512170797826904
      ],
      [
        "▁line",
        -8.513764300158803
      ],
      [
        "ang",
        -8.516271360798555
      ],
      [
        "▁it.",
        -8.518908221713389
      ],
      [
        "▁including",
        -8.522024186393814
      ],
      [
        "▁case",
        -8.52490044638786
      ],
      [
        "▁government",
        -8.525698988013099
      ],
      [
        "ow",
        -8.526635422120325
      ],
      [
        "▁support",
        -8.527538978170249
      ],
      [
        "j",
        -8.529379501624616
      ],
      [
        "▁together",
        -8.530313899042312
      ],
      [
        "▁later",
        -8.534044943297584
      ],
      [
        "▁mother",
        -8.534046042002727
      ],
      [
        "▁I'm",
        -8.534282151186003
      ],
      [
        "n't",
        -8.534357690548736
      ],
      [
        "▁office",
        -8.53472806251634
      ],
      [
        "▁Vi",
        -8.543263247103079
      ],
      [
        "▁A:",
        -8.543515766862736
      ],
      [
        "▁side",
        -8.543902714590963
      ],
      [
        "lin",
        -8.544376740554465
      ],
      [
        "▁“",
        -8.546682210133653
      ],
      [
        "▁Sa",
        -8.546842207774638
      ],
      [
        "ub",
        -8.548107577050242
      ],
      [
        "▁single",
        -8.54841651844437
      ],
      [
        "▁Z",
        -8.548460951906787
      ],
      [
        "▁app",
        -8.548837409154626
      ],
      [
        "▁questions",
        -8.549746988477745
      ],
      [
        "▁near",
        -8.550877150500362
      ],
      [
        "ak",
        -8.552410134930229
      ],
      [
        "▁title",
        -8.561201518955931
      ],
      [
        "▁energy",
        -8.56180001323727
      ],
      [
        "ction",
        -8.561986498042437
      ],
      [
        "▁bo",
        -8.563129784759202
      ],
      [
        "▁times",
        -8.564908425612703
      ],
      [
        "▁problem",
        -8.565991285766628
      ],
      [
        "▁Lo",
        -8.566679225877024
      ],
      [
        "bo",
        -8.566907505814012
      ],
      [
        "▁question.",
        -8.567320147445786
      ],
      [
        ".\n-",
        -8.56749427562198
      ],
      [
        "▁came",
        -8.56772007633329
      ],
      [
        "▁become",
        -8.568507461565561
      ],
      [
        "les",
        -8.568607703939497
      ],
      [
        "ler",
        -8.569325868207892
      ],
      [
        "▁Check",
        -8.569563796955508
      ],
      [
        "▁conclude",
        -8.573574067258402
      ],
      [
        "▁yes\n",
        -8.573654663707769
      ],
      [
        "▁John",
        -8.574850798196046
      ],
      [
        "red",
        -8.57650121846905
      ],
      [
        ".\nA",
        -8.576575807380896
      ],
      [
        "▁It's",
        -8.576584306274468
      ],
      [
        "▁human",
        -8.578008781723005
      ],
      [
        "ell",
        -8.582692400176608
      ],
      [
        "▁Translate",
        -8.584048464203608
      ],
      [
        "▁V",
        -8.584336576236707
      ],
      [
        "▁Ta",
        -8.585035754889155
      ],
      [
        "▁ex",
        -8.586085318784889
      ],
      [
        "\nAnswer",
        -8.58742480438384
      ],
      [
        "▁travel",
        -8.587891726548628
      ],
      [
        "▁true",
        -8.591089813518618
      ],
      [
        "▁million",
        -8.591098466892943
      ],
      [
        "▁Some",
        -8.593274215649727
      ],
      [
        "ice",
        -8.595502855413375
      ],
      [
        "▁$",
        -8.597191126859222
      ],
      [
        "ger",
        -8.598154507407228
      ],
      [
        "J",
        -8.598496670567757
      ],
      [
        "▁15",
        -8.599622470784906
      ],
      [
        "▁Ver",
        -8.599864918517358
      ],
      [
        "▁Yes",
        -8.600001790425335
      ],
      [
        "▁men",
        -8.600789440871784
      ],
      [
        "ka",
        -8.600813845748025
      ],
      [
        "▁store",
        -8.6019306745685
      ],
      [
        "▁start",
        -8.603302795992802
      ],
      [
        "▁several",
        -8.603496586358537
      ],
      [
        "▁restaurant",
        -8.604580141624162
      ],
      [
        "▁One",
        -8.605983750309164
      ],
      [
        "▁move",
        -8.606123750375312
      ],
      [
        "▁Your",
        -8.609001449952627
      ],
      [
        "ification",
        -8.610395946171806
      ],
      [
        "▁hours",
        -8.61077868388977
      ],
      [
        "▁Sentiment",
        -8.614127409541974
      ],
      [
        "ip",
        -8.614949644082335
      ],
      [
        "lu",
        -8.616609631546643
      ],
      [
        "▁five",
        -8.616805911654266
      ],
      [
        "▁Options:",
        -8.617413686386028
      ],
      [
        "▁change",
        -8.618701042906006
      ],
      [
        "mer",
        -8.619443197375217
      ],
      [
        "qu",
        -8.619496990507848
      ],
      [
        "ex",
        -8.62347803684989
      ],
      [
        "▁class",
        -8.62405202695575
      ],
      [
        "ite",
        -8.625881021877374
      ],
      [
        "▁blood",
        -8.625984326794349
      ],
      [
        "▁season",
        -8.626968407125664
      ],
      [
        "\nThe",
        -8.631057140203179
      ],
      [
        "▁ca",
        -8.631304659179786
      ],
      [
        "tro",
        -8.63219498708681
      ],
      [
        "▁Di",
        -8.632546289979727
      ],
      [
        "▁free",
        -8.634838125253044
      ],
      [
        "▁company",
        -8.63523561930532
      ],
      [
        "▁result",
        -8.636669097139823
      ],
      [
        "▁return",
        -8.637095398500195
      ],
      [
        "▁word",
        -8.639524292206902
      ],
      [
        ":\n",
        -8.64090981310051
      ],
      [
        "▁mo",
        -8.641740269883542
      ],
      [
        "▁early",
        -8.642862180558264
      ],
      [
        "▁released",
        -8.644180655381112
      ],
      [
        "▁Translation",
        -8.645872066445747
      ],
      [
        "gg",
        -8.645947435335527
      ],
      [
        "▁third",
        -8.646438186336876
      ],
      [
        "▁open",
        -8.648352904954683
      ],
      [
        "▁public",
        -8.648740475138094
      ],
      [
        "ized",
        -8.649595266445813
      ],
      [
        "und",
        -8.651719169363606
      ],
      [
        "our",
        -8.652737548981701
      ],
      [
        "▁Ga",
        -8.65437305331442
      ],
      [
        "▁having",
        -8.654397232632778
      ],
      [
        "▁someone",
        -8.654858489358642
      ],
      [
        "▁making",
        -8.654998739157264
      ],
      [
        "▁eat",
        -8.655219489206377
      ],
      [
        "we",
        -8.655489476985652
      ],
      [
        "ring",
        -8.656022466787476
      ],
      [
        "▁father",
        -8.658558917678063
      ],
      [
        "▁full",
        -8.66374352817442
      ],
      [
        "Based",
        -8.666090575821164
      ],
      [
        "?\n\n",
        -8.666983481816981
      ],
      [
        "▁death",
        -8.66821301637607
      ],
      [
        "▁ra",
        -8.668843924757924
      ],
      [
        "▁cost",
        -8.669464685941156
      ],
      [
        "ach",
        -8.674900411725323
      ],
      [
        "▁\"I",
        -8.675399440344817
      ],
      [
        "▁kind",
        -8.676195944352902
      ],
      [
        "bu",
        -8.679425525250263
      ],
      [
        "▁[",
        -8.680110071181664
      ],
      [
        "▁Who",
        -8.680583556509164
      ],
      [
        "▁law",
        -8.681840386695844
      ],
      [
        "▁didn't",
        -8.682880148479036
      ],
      [
        "▁task,",
        -8.683722157399389
      ],
      [
        "6",
        -8.68400218501439
      ],
      [
        "▁fact",
        -8.684832721390979
      ],
      [
        "▁context",
        -8.687699349178256
      ],
      [
        "▁red",
        -8.691261852010074
      ],
      [
        "▁_",
        -8.693150398096678
      ],
      [
        "▁point",
        -8.69459124467477
      ],
      [
        "▁9",
        -8.694754598212757
      ],
      [
        "▁Se",
        -8.695001024846395
      ],
      [
        "▁York",
        -8.695463709594332
      ],
      [
        "▁can't",
        -8.695741650944875
      ],
      [
        "ther",
        -8.697126666731158
      ],
      [
        "▁police",
        -8.697847662450053
      ],
      [
        "▁sp",
        -8.697887738220476
      ],
      [
        "mon",
        -8.698178680852036
      ],
      [
        "ue",
        -8.698184100439658
      ],
      [
        "▁local",
        -8.698792530060391
      ],
      [
        "▁po",
        -8.698859200526467
      ],
      [
        "sk",
        -8.701327953165015
      ],
      [
        "vo",
        -8.701870726260037
      ],
      [
        "ical",
        -8.706812844324283
      ],
      [
        "po",
        -8.708583158379843
      ],
      [
        "▁Pro",
        -8.709284653148499
      ],
      [
        "▁Ne",
        -8.710518403999943
      ],
      [
        "▁let",
        -8.710716636463761
      ],
      [
        "▁sure",
        -8.712494401014096
      ],
      [
        "▁minutes",
        -8.713898637337227
      ],
      [
        "▁Su",
        -8.715408976128742
      ],
      [
        "20",
        -8.715819792786846
      ],
      [
        "▁girl",
        -8.716744257457355
      ],
      [
        "port",
        -8.717342757671291
      ],
      [
        "▁comp",
        -8.721152364392111
      ],
      [
        "ding",
        -8.72199117580052
      ],
      [
        "ng",
        -8.722394187168053
      ],
      [
        "▁big",
        -8.723293965370528
      ],
      [
        "▁common",
        -8.723764442009255
      ],
      [
        "▁present",
        -8.72439565312172
      ],
      [
        "▁win",
        -8.725770860387298
      ],
      [
        "▁m",
        -8.727260574941472
      ],
      [
        "lar",
        -8.72984153533422
      ],
      [
        "▁pay",
        -8.730807596642414
      ],
      [
        "Hypothesis",
        -8.731745024113508
      ],
      [
        "▁Mi",
        -8.733838735066815
      ],
      [
        "▁With",
        -8.734122435698831
      ],
      [
        "▁bar",
        -8.735310397337548
      ],
      [
        "▁real",
        -8.73545228418243
      ],
      [
        "side",
        -8.735947964565181
      ],
      [
        "▁business",
        -8.736755199621973
      ],
      [
        "▁goal",
        -8.73804644156715
      ],
      [
        "▁sentiment",
        -8.739218538046753
      ],
      [
        "ship",
        -8.740793766852551
      ],
      [
        "▁J",
        -8.741195696301936
      ],
      [
        "▁Of",
        -8.74156800152289
      ],
      [
        "▁again",
        -8.742888742816879
      ],
      [
        "▁top",
        -8.743338075237897
      ],
      [
        "che",
        -8.743747230569987
      ],
      [
        "▁Solve",
        -8.74397362696441
      ],
      [
        "out",
        -8.745403320019122
      ],
      [
        "▁face",
        -8.745918245655826
      ],
      [
        "use",
        -8.746835568821503
      ],
      [
        "▁hit",
        -8.747666754869636
      ],
      [
        "▁here",
        -8.747859424502844
      ],
      [
        "▁South",
        -8.75046170256121
      ],
      [
        "▁written",
        -8.7511730053774
      ],
      [
        "▁*",
        -8.751946424789324
      ],
      [
        ";\n",
        -8.753384491971563
      ],
      [
        "pi",
        -8.754832483534845
      ],
      [
        "ud",
        -8.75485854529298
      ],
      [
        "sta",
        -8.755719100241555
      ],
      [
        "[",
        -8.756575563577595
      ],
      [
        "▁Ri",
        -8.75767931869064
      ],
      [
        "▁choose",
        -8.75803184692486
      ],
      [
        "ize",
        -8.758798378787803
      ],
      [
        "▁post",
        -8.75931080400458
      ],
      [
        "▁art",
        -8.75995124075565
      ],
      [
        "ney",
        -8.761785445535644
      ],
      [
        "▁getting",
        -8.762367529247292
      ],
      [
        "▁Da",
        -8.764964016820588
      ],
      [
        "▁break",
        -8.765561700921822
      ],
      [
        "▁provide",
        -8.767417677189266
      ],
      [
        "▁building",
        -8.769171459871927
      ],
      [
        "▁—",
        -8.769505139863625
      ],
      [
        "▁w",
        -8.770264458575255
      ],
      [
        "bi",
        -8.771215893308627
      ],
      [
        "▁past",
        -8.771291637801193
      ],
      [
        "▁sound",
        -8.771964955973578
      ],
      [
        "▁asked",
        -8.77254038773738
      ],
      [
        "mm",
        -8.77326789660412
      ],
      [
        "den",
        -8.773688194152399
      ],
      [
        "▁women",
        -8.773984237872723
      ],
      [
        "ure",
        -8.774209039506571
      ],
      [
        "▁sentences",
        -8.774290944782102
      ],
      [
        "▁population",
        -8.776254615303497
      ],
      [
        "▁Na",
        -8.777309781455207
      ],
      [
        "▁talk",
        -8.777646254849033
      ],
      [
        "▁parents",
        -8.779126288969964
      ],
      [
        "▁U.S.",
        -8.780762504632651
      ],
      [
        "▁Title",
        -8.783034382255666
      ],
      [
        "▁within",
        -8.784207951737752
      ],
      [
        "▁sub",
        -8.784230056314938
      ],
      [
        "▁0",
        -8.785612729394488
      ],
      [
        "▁type",
        -8.786242937105301
      ],
      [
        "▁try",
        -8.787336728367315
      ],
      [
        "▁town",
        -8.787812416901458
      ],
      [
        "▁la",
        -8.788057261437505
      ],
      [
        "▁age",
        -8.788726065197046
      ],
      [
        "▁reasoning",
        -8.791592122463852
      ],
      [
        "The",
        -8.79226549482445
      ],
      [
        "▁Bar",
        -8.794701124127888
      ],
      [
        "▁subject",
        -8.795875367019795
      ],
      [
        "▁US",
        -8.796000903543415
      ],
      [
        "▁became",
        -8.796094527567895
      ],
      [
        "▁affect",
        -8.796800582508052
      ],
      [
        "▁believe",
        -8.797326774633472
      ],
      [
        "▁far",
        -8.79960165166467
      ],
      [
        "▁date",
        -8.799898904266415
      ],
      [
        "ham",
        -8.801115474938847
      ],
      [
        "▁Ja",
        -8.80148307456506
      ],
      [
        "gen",
        -8.803215312179095
      ],
      [
        "iv",
        -8.803397486483165
      ],
      [
        "▁power",
        -8.804561806481457
      ],
      [
        "▁Man",
        -8.804849339924258
      ],
      [
        "▁stay",
        -8.806166944640827
      ],
      [
        "▁least",
        -8.807345565851232
      ],
      [
        "▁bad",
        -8.810118185991245
      ],
      [
        "▁main",
        -8.810683593145855
      ],
      [
        "▁Product",
        -8.8109144054435
      ],
      [
        "gi",
        -8.811104762765392
      ],
      [
        "▁child",
        -8.812169703015405
      ],
      [
        "gan",
        -8.813000796175462
      ],
      [
        "▁taking",
        -8.813005653013128
      ],
      [
        "▁close",
        -8.813510793980157
      ],
      [
        "▁fl",
        -8.813548105884117
      ],
      [
        ":\n\n",
        -8.813602631879734
      ],
      [
        "▁fr",
        -8.815553806131751
      ],
      [
        "▁black",
        -8.816355225607698
      ],
      [
        "ight",
        -8.816462735487956
      ],
      [
        "▁All",
        -8.817188173767775
      ],
      [
        "▁City",
        -8.817211506745526
      ],
      [
        "▁makes",
        -8.817871613252402
      ],
      [
        "▁party",
        -8.818247280949445
      ],
      [
        "▁land",
        -8.818595612818354
      ],
      [
        "▁Ka",
        -8.82187278960225
      ],
      [
        "▁fire",
        -8.823328695198077
      ],
      [
        "ile",
        -8.824383276564625
      ],
      [
        "▁rest",
        -8.82727064215074
      ],
      [
        "▁Te",
        -8.828359736075578
      ],
      [
        "?\nThe",
        -8.828805511940343
      ],
      [
        "▁vi",
        -8.82889010100611
      ],
      [
        "▁30",
        -8.829232677002127
      ],
      [
        "▁turn",
        -8.82944010355451
      ],
      [
        "by",
        -8.82964151958216
      ],
      [
        "▁working",
        -8.83026404017739
      ],
      [
        "▁former",
        -8.830624156878528
      ],
      [
        "▁statement",
        -8.831892229535566
      ],
      [
        "art",
        -8.83195488543876
      ],
      [
        "▁along",
        -8.832417836568448
      ],
      [
        "ear",
        -8.83245857216696
      ],
      [
        "▁special",
        -8.83600433925843
      ],
      [
        "▁final",
        -8.837523825323201
      ],
      [
        "▁Bu",
        -8.838140839603554
      ],
      [
        "ped",
        -8.838868323625762
      ],
      [
        "ug",
        -8.838912913899382
      ],
      [
        "wa",
        -8.839280376902117
      ],
      [
        "▁summary",
        -8.84040424307965
      ],
      [
        "▁wanted",
        -8.841829784847423
      ],
      [
        "▁played",
        -8.841979790082682
      ],
      [
        "▁song",
        -8.842535043072152
      ],
      [
        "▁able",
        -8.844813724288489
      ],
      [
        "▁11",
        -8.845315325678001
      ],
      [
        "ki",
        -8.846658564178476
      ],
      [
        "ward",
        -8.84719446272604
      ],
      [
        "?\nOptions:\n",
        -8.849417359215792
      ],
      [
        "▁sense",
        -8.849810309122706
      ],
      [
        "▁understand",
        -8.851064068751203
      ],
      [
        "▁16",
        -8.851068374505491
      ],
      [
        "▁table",
        -8.85108365639553
      ],
      [
        "s'",
        -8.851925070423892
      ],
      [
        "▁output",
        -8.857321460834847
      ],
      [
        "▁World",
        -8.858847148221585
      ],
      [
        "▁rock",
        -8.85901591341395
      ],
      [
        "res",
        -8.859817295747252
      ],
      [
        "▁six",
        -8.860511137588585
      ],
      [
        "▁situation",
        -8.860949898696099
      ],
      [
        "▁However,",
        -8.861473005943733
      ],
      [
        "han",
        -8.861825371401341
      ],
      [
        "▁Generate",
        -8.864768929810811
      ],
      [
        "▁dog",
        -8.864844167378013
      ],
      [
        "▁Let",
        -8.865314118815315
      ],
      [
        "ations",
        -8.865360421474541
      ],
      [
        "▁rate",
        -8.865618499338634
      ],
      [
        "cl",
        -8.866065971832521
      ],
      [
        "qui",
        -8.866171450911686
      ],
      [
        "▁white",
        -8.867868324056527
      ],
      [
        "▁takes",
        -8.868879904514266
      ],
      [
        "▁looking",
        -8.869152558784318
      ],
      [
        "led",
        -8.869681230907098
      ],
      [
        "ep",
        -8.870238398499774
      ],
      [
        "▁trying",
        -8.871098938833175
      ],
      [
        "▁stop",
        -8.8712769513319
      ],
      [
        "ition",
        -8.872678900850667
      ],
      [
        "cy",
        -8.875166433271755
      ],
      [
        "▁series",
        -8.875569645985937
      ],
      [
        "▁computer",
        -8.876152774560683
      ],
      [
        "▁yes",
        -8.876715905369863
      ],
      [
        "▁health",
        -8.876851159453139
      ],
      [
        "cu",
        -8.877539804691594
      ],
      [
        "ny",
        -8.877599097240736
      ],
      [
        "▁learn",
        -8.878432540682901
      ],
      [
        "har",
        -8.879036163568426
      ],
      [
        "▁outside",
        -8.880437485952168
      ],
      [
        "▁French",
        -8.882223582086711
      ],
      [
        "▁Sp",
        -8.882401793517477
      ],
      [
        "▁video",
        -8.882524471051717
      ],
      [
        "▁Th",
        -8.882806833849173
      ],
      [
        "▁Jo",
        -8.883533264914249
      ],
      [
        "▁writing",
        -8.887774618671134
      ],
      [
        "▁His",
        -8.888339586431277
      ],
      [
        "▁hi",
        -8.888903747936116
      ],
      [
        "▁deal",
        -8.889218197730656
      ],
      [
        "\\",
        -8.889250780512548
      ],
      [
        "▁input",
        -8.889342388712357
      ],
      [
        "▁Go",
        -8.889881870253738
      ],
      [
        "ide",
        -8.890663846240571
      ],
      [
        "▁actually",
        -8.891555298431314
      ],
      [
        "▁du",
        -8.893094780940705
      ],
      [
        "▁care",
        -8.898351699322369
      ],
      [
        "pp",
        -8.899085162062423
      ],
      [
        "▁below",
        -8.899422247142098
      ],
      [
        "▁call",
        -8.900701017257306
      ],
      [
        "▁clean",
        -8.901422463652501
      ],
      [
        "▁ever",
        -8.90274245135474
      ],
      [
        "ions",
        -8.907136665710972
      ],
      [
        "cent",
        -8.908002654360558
      ],
      [
        "ever",
        -8.90984169730033
      ],
      [
        "let",
        -8.909843400159776
      ],
      [
        "val",
        -8.91028773108977
      ],
      [
        "▁visit",
        -8.910463957895917
      ],
      [
        "▁House",
        -8.91230032292804
      ],
      [
        "▁Y",
        -8.912965598009446
      ],
      [
        "low",
        -8.914322674604694
      ],
      [
        "▁drive",
        -8.9150369514699
      ],
      [
        "▁star",
        -8.916802123025647
      ],
      [
        "▁seen",
        -8.91680946397668
      ],
      [
        "▁study",
        -8.91829753626428
      ],
      [
        "▁North",
        -8.91835088345583
      ],
      [
        "A:",
        -8.921752860988729
      ],
      [
        "▁late",
        -8.925226076544128
      ],
      [
        "▁Premise",
        -8.926700792869717
      ],
      [
        "▁amount",
        -8.928076308985151
      ],
      [
        "ack",
        -8.929115516726494
      ],
      [
        "▁playing",
        -8.929296406126376
      ],
      [
        "▁relationship",
        -8.930755242380396
      ],
      [
        "▁goes",
        -8.930901196916349
      ],
      [
        "▁meaning",
        -8.931341295455223
      ],
      [
        "▁Gra",
        -8.931648838997514
      ],
      [
        "▁doing",
        -8.932980666501916
      ],
      [
        "▁phone",
        -8.933363083229892
      ],
      [
        "day",
        -8.933510331764898
      ],
      [
        "▁17",
        -8.933656903460093
      ],
      [
        "ual",
        -8.935760504181935
      ],
      [
        "▁you're",
        -8.936627772642476
      ],
      [
        "▁today",
        -8.941094293869876
      ],
      [
        "▁14",
        -8.942164907902797
      ],
      [
        "▁cut",
        -8.943161665380376
      ],
      [
        "▁ball",
        -8.943506360344198
      ],
      [
        "▁University",
        -8.946605978223175
      ],
      [
        "▁President",
        -8.946988258631652
      ],
      [
        "fer",
        -8.949132235706493
      ],
      [
        "8",
        -8.94987551400266
      ],
      [
        "ran",
        -8.95008340368856
      ],
      [
        "’",
        -8.95120979137868
      ],
      [
        "unt",
        -8.952907524505697
      ],
      [
        "▁brother",
        -8.95316507564296
      ],
      [
        "▁Review:",
        -8.953193858967683
      ],
      [
        "▁doesn't",
        -8.9541254518407
      ],
      [
        "▁began",
        -8.95580606510378
      ],
      [
        "▁due",
        -8.957032392141095
      ],
      [
        "▁months",
        -8.958798943234283
      ],
      [
        "tri",
        -8.958867527387756
      ],
      [
        "▁cat",
        -8.958992168028718
      ],
      [
        "7",
        -8.958995867860494
      ],
      [
        "▁front",
        -8.959753589040417
      ],
      [
        "▁started",
        -8.960015521739475
      ],
      [
        "▁customer",
        -8.9608694597559
      ],
      [
        "▁sc",
        -8.961293742644896
      ],
      [
        "ren",
        -8.961652966965437
      ],
      [
        "▁control",
        -8.961874653357349
      ],
      [
        "ities",
        -8.962002661451816
      ],
      [
        "tu",
        -8.96212341637169
      ],
      [
        "▁report",
        -8.964498940744422
      ],
      [
        "▁birth",
        -8.964605043982829
      ],
      [
        "lan",
        -8.965053913851037
      ],
      [
        "ves",
        -8.966615948281598
      ],
      [
        "▁May",
        -8.96726577163722
      ],
      [
        "end",
        -8.96742701857042
      ],
      [
        "▁pa",
        -8.967875792982293
      ],
      [
        "▁month",
        -8.969585334970805
      ],
      [
        "▁across",
        -8.970587141949263
      ],
      [
        "▁include",
        -8.970758138463951
      ],
      [
        "ash",
        -8.972798819178315
      ],
      [
        "▁solution",
        -8.97399378754413
      ],
      [
        "▁wife",
        -8.974123863251787
      ],
      [
        "▁color",
        -8.97430920076184
      ],
      [
        "ens",
        -8.974607406318519
      ],
      [
        "▁price",
        -8.975741135708912
      ],
      [
        "ative",
        -8.977884543336849
      ],
      [
        "▁correctly",
        -8.979495621132775
      ],
      [
        "Y",
        -8.979708213998633
      ],
      [
        "--",
        -8.979893482321401
      ],
      [
        "ture",
        -8.980543326956933
      ],
      [
        "▁national",
        -8.980828631119472
      ],
      [
        "▁event",
        -8.981847860873788
      ],
      [
        "len",
        -8.982620316674772
      ],
      [
        "act",
        -8.982779587947594
      ],
      [
        "▁though",
        -8.982839234444064
      ],
      [
        "▁\"S",
        -8.984279124042327
      ],
      [
        "▁service",
        -8.984668881185407
      ],
      [
        "tal",
        -8.985425019382
      ],
      [
        "▁inside",
        -8.98858568345651
      ],
      [
        "▁Process",
        -8.989956175101444
      ],
      [
        "▁park",
        -8.990176879218035
      ],
      [
        "▁market",
        -8.990187623011288
      ],
      [
        "▁record",
        -8.99112652321799
      ],
      [
        "ible",
        -8.991240056377563
      ],
      [
        "10",
        -8.991877866466016
      ],
      [
        "▁ti",
        -8.991983042767982
      ],
      [
        "rus",
        -8.99218830858129
      ],
      [
        "▁China",
        -8.992437811650328
      ],
      [
        "▁Context:",
        -8.993153826157172
      ],
      [
        "her",
        -8.993767230727329
      ],
      [
        "▁se",
        -8.99394853527335
      ],
      [
        "▁born",
        -8.994683472291765
      ],
      [
        "▁term",
        -8.996143717705012
      ],
      [
        "▁Pre",
        -8.996379346861048
      ],
      [
        "▁fish",
        -8.99844147808021
      ],
      [
        "▁ten",
        -8.998500446043202
      ],
      [
        "ency",
        -8.999977120940722
      ],
      [
        "▁popular",
        -9.002867337265549
      ],
      [
        "▁draw",
        -9.003776871439191
      ],
      [
        "pro",
        -9.007298670177121
      ],
      [
        "▁El",
        -9.007602451979336
      ],
      [
        "▁Mon",
        -9.00840292617901
      ],
      [
        "ric",
        -9.008795065315926
      ],
      [
        "▁boy",
        -9.008846358271947
      ],
      [
        "▁members",
        -9.009014715687055
      ],
      [
        "▁role",
        -9.009751530585582
      ],
      [
        "my",
        -9.010210697992893
      ],
      [
        "▁Premise:",
        -9.011071737420643
      ],
      [
        "▁from:\n",
        -9.01109800709971
      ],
      [
        "▁experience",
        -9.011654152200816
      ],
      [
        "▁Why",
        -9.011891379032939
      ],
      [
        "▁ask",
        -9.013300535320763
      ],
      [
        "▁once",
        -9.013719305062494
      ],
      [
        "ypothesis:",
        -9.014244892469257
      ],
      [
        "▁space",
        -9.014857417219227
      ],
      [
        "▁``",
        -9.015013253834375
      ],
      [
        "▁Mu",
        -9.016734421567731
      ],
      [
        "▁mi",
        -9.016783664240856
      ],
      [
        "▁living",
        -9.017063356303776
      ],
      [
        "for",
        -9.017376127124267
      ],
      [
        "▁inter",
        -9.017573382495648
      ],
      [
        "que",
        -9.017839817874117
      ],
      [
        "▁period",
        -9.018702215785439
      ],
      [
        "▁dec",
        -9.020089549885556
      ],
      [
        "▁said.",
        -9.020487616168579
      ],
      [
        "▁British",
        -9.021994316261509
      ],
      [
        "▁morning",
        -9.022823987886909
      ],
      [
        "▁named",
        -9.023960263625169
      ],
      [
        "▁points",
        -9.024044787167535
      ],
      [
        "cing",
        -9.02442819013773
      ],
      [
        "▁met",
        -9.024832999742445
      ],
      [
        "▁program",
        -9.026156148322404
      ],
      [
        "▁leave",
        -9.02715756500623
      ],
      [
        "▁explain",
        -9.027382495247544
      ],
      [
        "▁saw",
        -9.027394555791764
      ],
      [
        "vis",
        -9.02775708284479
      ],
      [
        "▁check",
        -9.028641858240764
      ],
      [
        "▁select",
        -9.02907289814835
      ],
      [
        "ology",
        -9.029164408721162
      ],
      [
        "ration",
        -9.02933504001225
      ],
      [
        "cr",
        -9.03039664798274
      ],
      [
        "er,",
        -9.031195121879037
      ],
      [
        "”",
        -9.032509206169628
      ],
      [
        "▁bring",
        -9.032708028990092
      ],
      [
        "▁walk",
        -9.033341032848131
      ],
      [
        "og",
        -9.034077190017793
      ],
      [
        "bb",
        -9.034731584082593
      ],
      [
        "▁increase",
        -9.034956695421844
      ],
      [
        "hy",
        -9.035155366440186
      ],
      [
        "▁social",
        -9.03577106953824
      ],
      [
        "ries",
        -9.037298816301234
      ],
      [
        "▁according",
        -9.037359392833356
      ],
      [
        "▁Ar",
        -9.037418116332312
      ],
      [
        "▁Or",
        -9.037645769418138
      ],
      [
        "gr",
        -9.038746061405316
      ],
      [
        "▁already",
        -9.039454279887154
      ],
      [
        "▁won",
        -9.040043833246669
      ],
      [
        "▁option",
        -9.041471959555796
      ],
      [
        "ious",
        -9.042596488315418
      ],
      [
        "▁fe",
        -9.04280951887333
      ],
      [
        "ier",
        -9.04390290693329
      ],
      [
        "gar",
        -9.044273720302943
      ],
      [
        "▁cause",
        -9.044402780398737
      ],
      [
        "9",
        -9.045887361010674
      ],
      [
        "▁attempt",
        -9.047031575315568
      ],
      [
        "▁effect",
        -9.047120840262387
      ],
      [
        "men",
        -9.04842344044447
      ],
      [
        "▁li",
        -9.04843334230625
      ],
      [
        "▁sign",
        -9.048451435782098
      ],
      [
        "▁contain",
        -9.048669807491763
      ],
      [
        "▁region",
        -9.048759302282349
      ],
      [
        "▁pair",
        -9.049325761292215
      ],
      [
        "▁likely",
        -9.04941695328934
      ],
      [
        "▁similar",
        -9.050417732986846
      ],
      [
        "▁Her",
        -9.051131406449375
      ],
      [
        "▁himself",
        -9.051690748834515
      ],
      [
        "▁behind",
        -9.052966982004076
      ],
      [
        "ze",
        -9.05309757870144
      ],
      [
        "time",
        -9.05543865477781
      ],
      [
        "ral",
        -9.056589963974353
      ],
      [
        "ple",
        -9.056642212371118
      ],
      [
        "▁history",
        -9.056994696722457
      ],
      [
        "▁fall",
        -9.057887684242576
      ],
      [
        "▁fun",
        -9.058723223067858
      ],
      [
        "▁them.",
        -9.058979789990179
      ],
      [
        "▁position",
        -9.060690836832496
      ],
      [
        "▁attack",
        -9.061542304337754
      ],
      [
        "▁Trump",
        -9.063222759024878
      ],
      [
        "▁works",
        -9.063646547916928
      ],
      [
        "▁cor",
        -9.063847974676209
      ],
      [
        "▁13",
        -9.06514328977018
      ],
      [
        "▁1.",
        -9.065997525038487
      ],
      [
        "▁bit",
        -9.066441756420973
      ],
      [
        "▁Col",
        -9.066582569089563
      ],
      [
        "ja",
        -9.066848638594376
      ],
      [
        "▁London",
        -9.067524109923681
      ],
      [
        "▁ho",
        -9.067644239743498
      ],
      [
        "▁add",
        -9.068646793595597
      ],
      [
        "▁research",
        -9.070136112647596
      ],
      [
        "▁sea",
        -9.070585955761803
      ],
      [
        "30",
        -9.072091408393533
      ],
      [
        "▁determine",
        -9.072211915441589
      ],
      [
        "▁grow",
        -9.07370037066055
      ],
      [
        "▁plan",
        -9.074431661535058
      ],
      [
        "▁gra",
        -9.07464745857487
      ],
      [
        "▁Fa",
        -9.07465443696869
      ],
      [
        "▁These",
        -9.075639001869844
      ],
      [
        "▁version",
        -9.07621095521468
      ],
      [
        "▁cover",
        -9.077670222026716
      ],
      [
        "▁course",
        -9.077932049589823
      ],
      [
        "ake",
        -9.078296847451277
      ],
      [
        "off",
        -9.081385055491406
      ],
      [
        "▁Gu",
        -9.08158537881179
      ],
      [
        "▁options",
        -9.086275437382902
      ],
      [
        "▁usually",
        -9.087182642246717
      ],
      [
        "light",
        -9.087826208930176
      ],
      [
        "▁Would",
        -9.088443532986167
      ],
      [
        "▁Chinese",
        -9.088444099727464
      ],
      [
        "▁sold",
        -9.08932826944961
      ],
      [
        "▁blue",
        -9.089334212106667
      ],
      [
        "▁Earth",
        -9.090655298811239
      ],
      [
        "▁door",
        -9.090753265636167
      ],
      [
        "▁Instructions:",
        -9.091973125929439
      ],
      [
        "▁taken",
        -9.092436086789094
      ],
      [
        "▁received",
        -9.092973897215188
      ],
      [
        "0,000",
        -9.093640266283586
      ],
      [
        "▁fight",
        -9.093813350147656
      ],
      [
        "cc",
        -9.094034321737139
      ],
      [
        "nna",
        -9.09475209479474
      ],
      [
        "▁America",
        -9.095739193703892
      ],
      [
        "▁German",
        -9.095979408450074
      ],
      [
        "▁heart",
        -9.096413379061868
      ],
      [
        "▁major",
        -9.096747043559848
      ],
      [
        "▁lost",
        -9.097558254638619
      ],
      [
        "air",
        -9.098021249943463
      ],
      [
        "▁reason",
        -9.099329781087741
      ],
      [
        "▁view",
        -9.10072521937255
      ],
      [
        "rac",
        -9.10078860284067
      ],
      [
        "▁temperature",
        -9.102637522703937
      ],
      [
        "▁ago",
        -9.103029860488366
      ],
      [
        "▁Har",
        -9.103608377415526
      ],
      [
        "▁wall",
        -9.103826932584644
      ],
      [
        "▁$1",
        -9.1045547461153
      ],
      [
        "▁Logic",
        -9.10516741670957
      ],
      [
        "▁watch",
        -9.105714830553467
      ],
      [
        "▁project",
        -9.10597534227033
      ],
      [
        "▁Does",
        -9.107440540878885
      ],
      [
        "tar",
        -9.110129750181716
      ],
      [
        "▁object",
        -9.110555198008537
      ],
      [
        "▁Dr",
        -9.110906803331448
      ],
      [
        "▁Ni",
        -9.112072522564652
      ],
      [
        "▁From",
        -9.112190800211799
      ],
      [
        "▁National",
        -9.112521412404806
      ],
      [
        "▁almost",
        -9.113921437257861
      ],
      [
        "▁train",
        -9.114567284695923
      ],
      [
        "eng",
        -9.114858020309976
      ],
      [
        "▁su",
        -9.115691444994752
      ],
      [
        "lie",
        -9.115936079279967
      ],
      [
        "▁''",
        -9.116120286244612
      ],
      [
        "▁That",
        -9.116236275777604
      ],
      [
        "ject",
        -9.116751209725422
      ],
      [
        "ire",
        -9.117034518208584
      ],
      [
        "▁average",
        -9.11707043687487
      ],
      [
        "▁done",
        -9.117851046164358
      ],
      [
        "▁reading",
        -9.118510556453622
      ],
      [
        "▁follow",
        -9.118679219186216
      ],
      [
        "▁While",
        -9.118998069367994
      ],
      [
        "Q:",
        -9.119168746480177
      ],
      [
        "▁pick",
        -9.1194216353816
      ],
      [
        "▁others",
        -9.120762026632377
      ],
      [
        "▁daughter",
        -9.121123434451434
      ],
      [
        "▁football",
        -9.122057615164138
      ],
      [
        "hu",
        -9.122983835974825
      ],
      [
        "}",
        -9.124313692744824
      ],
      [
        "▁Pe",
        -9.12446239856543
      ],
      [
        "▁shop",
        -9.125224322315761
      ],
      [
        "▁club",
        -9.125693726518364
      ],
      [
        "▁fa",
        -9.12569728153082
      ],
      [
        "▁among",
        -9.12596319628831
      ],
      [
        "▁sleep",
        -9.126142680254333
      ],
      [
        "▁ba",
        -9.126319042643482
      ],
      [
        "▁lower",
        -9.126529220083881
      ],
      [
        "▁court",
        -9.127994199299327
      ],
      [
        "str",
        -9.130045940955643
      ],
      [
        "▁paper",
        -9.132860803089901
      ],
      [
        "▁Mc",
        -9.133314007949147
      ],
      [
        "▁hope",
        -9.13342523526629
      ],
      [
        "▁pressure",
        -9.13411329713272
      ],
      [
        "▁create",
        -9.134385361064219
      ],
      [
        "▁ground",
        -9.135222971834173
      ],
      [
        "▁street",
        -9.135335013094476
      ],
      [
        "▁cannot",
        -9.136702179624002
      ],
      [
        "▁&",
        -9.136999748761081
      ],
      [
        "▁road",
        -9.138639573832883
      ],
      [
        "▁design",
        -9.1397586569338
      ],
      [
        "▁key",
        -9.141593975752674
      ],
      [
        "▁hair",
        -9.141830830209356
      ],
      [
        "▁comes",
        -9.143878341108461
      ],
      [
        "rie",
        -9.143916333424507
      ],
      [
        "▁doctor",
        -9.146180727528597
      ],
      [
        "▁original",
        -9.147166432283395
      ],
      [
        "▁gave",
        -9.147612836841198
      ],
      [
        "\nChoose",
        -9.150510808810186
      ],
      [
        "ose",
        -9.152351729382564
      ],
      [
        "▁anything",
        -9.152598363690524
      ],
      [
        "▁idea",
        -9.152699425941119
      ],
      [
        "▁reach",
        -9.152896139567474
      ],
      [
        "{",
        -9.153026014217316
      ],
      [
        "▁mis",
        -9.153927794169423
      ],
      [
        "row",
        -9.154790119057001
      ],
      [
        "▁ice",
        -9.154972718974925
      ],
      [
        "▁animals",
        -9.155102935974245
      ],
      [
        "0%",
        -9.155220332901214
      ],
      [
        "▁fi",
        -9.15525875631571
      ],
      [
        "▁him.",
        -9.15542441870555
      ],
      [
        "kin",
        -9.155836634932072
      ],
      [
        "▁School",
        -9.156321639867418
      ],
      [
        "▁\n\n",
        -9.156406888682723
      ],
      [
        "▁Not",
        -9.156461153558428
      ],
      [
        "chi",
        -9.15688028900292
      ],
      [
        "▁decided",
        -9.15727752392075
      ],
      [
        "▁species",
        -9.158207605059701
      ],
      [
        "▁held",
        -9.158371984486589
      ],
      [
        "▁books",
        -9.15861023691603
      ],
      [
        "▁low",
        -9.15862308925361
      ],
      [
        "▁president",
        -9.15887395597151
      ],
      [
        "▁spend",
        -9.159629174660747
      ],
      [
        "▁sun",
        -9.160549841474287
      ],
      [
        "▁example,",
        -9.161551310790763
      ],
      [
        "This",
        -9.162657298616448
      ],
      [
        "▁member",
        -9.165659371812286
      ],
      [
        "rop",
        -9.166716138225114
      ],
      [
        "▁either",
        -9.166744926814232
      ],
      [
        "▁soon",
        -9.166969196315868
      ],
      [
        "▁\"M",
        -9.169687908933252
      ],
      [
        "-year-old",
        -9.171040406189706
      ],
      [
        "▁box",
        -9.171748863214532
      ],
      [
        "▁–",
        -9.171952361975428
      ],
      [
        "stan",
        -9.172004969427526
      ],
      [
        "▁X",
        -9.17233213538261
      ],
      [
        "▁decision",
        -9.172479223527624
      ],
      [
        "▁level",
        -9.17303000769401
      ],
      [
        "▁else",
        -9.17315714867011
      ],
      [
        "▁matter",
        -9.173446011383698
      ],
      [
        "all",
        -9.177603415190351
      ],
      [
        "▁Ad",
        -9.177832389814965
      ],
      [
        "▁Si",
        -9.178858024857323
      ],
      [
        "▁dead",
        -9.17887518582218
      ],
      [
        "▁character",
        -9.179343974281695
      ],
      [
        "▁100",
        -9.181483475664352
      ],
      [
        "▁student",
        -9.182073048452098
      ],
      [
        "rap",
        -9.182389414799776
      ],
      [
        "▁strong",
        -9.182608074211032
      ],
      [
        "▁hold",
        -9.18264864478924
      ],
      [
        "▁needed",
        -9.183285398470808
      ],
      [
        "nder",
        -9.18454794367118
      ],
      [
        "ments",
        -9.185641065766973
      ],
      [
        "▁action",
        -9.186411240461485
      ],
      [
        "▁act",
        -9.188228715386131
      ],
      [
        "▁ja",
        -9.18865652789248
      ],
      [
        "▁count",
        -9.189470229290361
      ],
      [
        "ko",
        -9.190436857830466
      ],
      [
        "▁article:",
        -9.190588819605248
      ],
      [
        "▁Pi",
        -9.192598699302625
      ],
      [
        "ular",
        -9.19299941150303
      ],
      [
        "ker",
        -9.193082348145921
      ],
      [
        "▁release",
        -9.193283484358052
      ],
      [
        "▁Hu",
        -9.193631980344566
      ],
      [
        "▁cook",
        -9.195318818466362
      ],
      [
        "uck",
        -9.195658035894262
      ],
      [
        "ld",
        -9.19583361327681
      ],
      [
        "rk",
        -9.196093808842587
      ],
      [
        "▁25",
        -9.196123913823637
      ],
      [
        "▁instead",
        -9.196388993847957
      ],
      [
        "▁century",
        -9.19721097780198
      ],
      [
        "▁running",
        -9.197211875474327
      ],
      [
        "mar",
        -9.197437093901861
      ],
      [
        "▁2:",
        -9.197748497346481
      ],
      [
        "▁1:",
        -9.197817616828186
      ],
      [
        "pos",
        -9.198299325291867
      ],
      [
        "▁time.",
        -9.19846989219457
      ],
      [
        ".\nAnswer",
        -9.19897445271972
      ],
      [
        "▁cell",
        -9.19901612320583
      ],
      [
        "ctor",
        -9.200107946067494
      ],
      [
        "▁David",
        -9.201727690637581
      ],
      [
        "▁Ru",
        -9.201841650989909
      ],
      [
        "▁conversation",
        -9.202133416817212
      ],
      [
        "▁imp",
        -9.202311136412654
      ],
      [
        "▁Sam",
        -9.202989262448543
      ],
      [
        "ign",
        -9.203173428877584
      ],
      [
        "▁mind",
        -9.204139410612939
      ],
      [
        "bit",
        -9.205775046575715
      ],
      [
        "▁skin",
        -9.206346586849717
      ],
      [
        "▁value",
        -9.20740571677186
      ],
      [
        "ified",
        -9.207629246264894
      ],
      [
        "▁letter",
        -9.209779416912482
      ],
      [
        "▁Ju",
        -9.210252248885372
      ],
      [
        "▁Reading",
        -9.21063461343739
      ],
      [
        "▁heat",
        -9.212820097296884
      ],
      [
        "za",
        -9.213765927575245
      ],
      [
        "60",
        -9.214019795567289
      ],
      [
        "cept",
        -9.214239148490353
      ],
      [
        "▁recommend",
        -9.215046487617201
      ],
      [
        "ping",
        -9.21574568021098
      ],
      [
        "▁author",
        -9.217376308181027
      ],
      [
        "▁weight",
        -9.21783600090692
      ],
      [
        "rine",
        -9.21802775521899
      ],
      [
        "▁West",
        -9.218087549994664
      ],
      [
        "▁Choose",
        -9.218515981283439
      ],
      [
        "▁scene",
        -9.218593472029347
      ],
      [
        "▁impossible",
        -9.219555396177778
      ],
      [
        "▁def",
        -9.219615449930272
      ],
      [
        ".\"\n",
        -9.220987715285553
      ],
      [
        "▁\"What",
        -9.2211311558292
      ],
      [
        "▁surface",
        -9.221566754094653
      ],
      [
        "—",
        -9.222044407726774
      ],
      [
        "▁gas",
        -9.222231308496449
      ],
      [
        "qua",
        -9.223219986457535
      ],
      [
        "▁ha",
        -9.223244710744357
      ],
      [
        "▁chance",
        -9.223393585527614
      ],
      [
        "▁countries",
        -9.223714084336395
      ],
      [
        "▁By",
        -9.224144668017145
      ],
      [
        "▁Spanish",
        -9.224590078526369
      ],
      [
        "▁success",
        -9.22470906526359
      ],
      [
        "▁individual",
        -9.225599232012106
      ],
      [
        "▁plant",
        -9.225767505649115
      ],
      [
        "▁gets",
        -9.225966110182398
      ],
      [
        "▁rain",
        -9.226661860022922
      ],
      [
        "▁games",
        -9.226887176140602
      ],
      [
        "▁probably",
        -9.227116069297036
      ],
      [
        "ium",
        -9.22822991572573
      ],
      [
        "▁England",
        -9.229142315044905
      ],
      [
        "▁San",
        -9.229460806907783
      ],
      [
        "▁Tom",
        -9.230575815070306
      ],
      [
        "▁difficult",
        -9.231171687546913
      ],
      [
        "▁details",
        -9.231188199369374
      ],
      [
        "uff",
        -9.232517774571905
      ],
      [
        "of",
        -9.232659571637706
      ],
      [
        "▁director",
        -9.23487820386135
      ],
      [
        "▁Two",
        -9.235166311472216
      ],
      [
        "▁Paul",
        -9.2358373299737
      ],
      [
        "▁hour",
        -9.23678339259794
      ],
      [
        "▁Bio",
        -9.237912657409442
      ],
      [
        "▁happen",
        -9.238452704248608
      ],
      [
        "In",
        -9.23846157058373
      ],
      [
        "▁percent",
        -9.239214934828421
      ],
      [
        "▁sh",
        -9.241460399284154
      ],
      [
        "▁Qu",
        -9.243427542921815
      ],
      [
        "ization",
        -9.244516852328143
      ],
      [
        "▁whole",
        -9.244659145259497
      ],
      [
        "▁Ki",
        -9.245148684653447
      ],
      [
        "▁considered",
        -9.245432574276146
      ],
      [
        "ore",
        -9.245722272434353
      ],
      [
        "▁wrong",
        -9.246013896785547
      ],
      [
        "▁happy",
        -9.246014019820535
      ],
      [
        "▁Mr.",
        -9.246715840683287
      ],
      [
        "▁cu",
        -9.24756886828805
      ],
      [
        "▁pi",
        -9.24756992136673
      ],
      [
        "▁cap",
        -9.248804952495366
      ],
      [
        "▁weeks",
        -9.24908811482217
      ],
      [
        "▁located",
        -9.249112150203931
      ],
      [
        "▁teacher",
        -9.249900682848299
      ],
      [
        "vin",
        -9.25030561014572
      ],
      [
        "so",
        -9.250800068554533
      ],
      [
        "▁needs",
        -9.250963500434072
      ],
      [
        "▁example",
        -9.25171432599498
      ],
      [
        "▁entailed",
        -9.252459054493803
      ],
      [
        "▁track",
        -9.252960051586374
      ],
      [
        "▁island",
        -9.253252400121646
      ],
      [
        "▁bi",
        -9.253571447723724
      ],
      [
        "▁higher",
        -9.254327251563314
      ],
      [
        "▁miles",
        -9.255415070842055
      ],
      [
        "▁Sc",
        -9.255496553609898
      ],
      [
        "▁touchdown",
        -9.257458690236717
      ],
      [
        "▁Russian",
        -9.258320464128374
      ],
      [
        "▁bought",
        -9.25846739245809
      ],
      [
        "▁stand",
        -9.258825405913498
      ],
      [
        "▁Where",
        -9.2605626625074
      ],
      [
        "old",
        -9.261093290977048
      ],
      [
        "▁send",
        -9.261965795238233
      ],
      [
        "50",
        -9.26265679515443
      ],
      [
        "▁wants",
        -9.263943364625753
      ],
      [
        "wi",
        -9.265588751043811
      ],
      [
        "▁answer.",
        -9.265590161476734
      ],
      [
        ".The",
        -9.265594351841582
      ],
      [
        "log",
        -9.265945322799341
      ],
      [
        "▁size",
        -9.266219193442238
      ],
      [
        "▁50",
        -9.267090124587344
      ],
      [
        "▁UK",
        -9.268412122033736
      ],
      [
        "'ve",
        -9.269298150712885
      ],
      [
        "▁couple",
        -9.269490592019249
      ],
      [
        "Available",
        -9.270544975139476
      ],
      [
        "ging",
        -9.271474980642555
      ],
      [
        "▁24",
        -9.271643133809036
      ],
      [
        "rupt",
        -9.273097692279702
      ],
      [
        "▁Then",
        -9.274099308603994
      ],
      [
        "▁super",
        -9.274634266926494
      ],
      [
        "▁Sha",
        -9.276035000788202
      ],
      [
        "▁location",
        -9.27747994130753
      ],
      [
        "▁v",
        -9.277882497462933
      ],
      [
        "▁content",
        -9.278000754922155
      ],
      [
        "▁Ex",
        -9.278109870867386
      ],
      [
        "▁largest",
        -9.278402769521088
      ],
      [
        "▁contains",
        -9.27847526815549
      ],
      [
        "▁career",
        -9.28046833094774
      ],
      [
        "▁image",
        -9.280615767190326
      ],
      [
        "▁college",
        -9.28063639542604
      ],
      [
        "▁TV",
        -9.280860178493617
      ],
      [
        "▁unit",
        -9.281680822339862
      ],
      [
        "▁Dis",
        -9.282027871971646
      ],
      [
        "▁Test",
        -9.282968651941022
      ],
      [
        "▁online",
        -9.283018111115464
      ],
      [
        "▁station",
        -9.283037401020163
      ],
      [
        "▁influence",
        -9.28330843885788
      ],
      [
        "▁ran",
        -9.284462815986014
      ],
      [
        "▁current",
        -9.286072028366124
      ],
      [
        "▁nothing",
        -9.286244321718314
      ],
      [
        "net",
        -9.286336040061023
      ],
      [
        "ER",
        -9.287448593347069
      ],
      [
        "▁decide",
        -9.287733999642473
      ],
      [
        "nic",
        -9.289229471749778
      ],
      [
        "▁everything",
        -9.289782837098493
      ],
      [
        "tive",
        -9.289800654153293
      ],
      [
        "com",
        -9.290558916036092
      ],
      [
        "▁future",
        -9.290919679526445
      ],
      [
        "▁means",
        -9.29319412062252
      ],
      [
        "ick",
        -9.293335622367199
      ],
      [
        "19",
        -9.293898927626534
      ],
      [
        "▁Lu",
        -9.294077020673722
      ],
      [
        "=",
        -9.294349226137964
      ],
      [
        "cal",
        -9.295984629155626
      ],
      [
        "▁account",
        -9.296246592432247
      ],
      [
        "▁causes",
        -9.298425692326234
      ],
      [
        "▁Time",
        -9.29865866648624
      ],
      [
        "▁meeting",
        -9.298708471102795
      ],
      [
        "▁problems",
        -9.30161106748119
      ],
      [
        "n’t",
        -9.302218835474228
      ],
      [
        "▁produce",
        -9.302271152208782
      ],
      [
        "▁40",
        -9.303645953468784
      ],
      [
        "▁wrote",
        -9.30385558014089
      ],
      [
        "▁bus",
        -9.303969287188995
      ],
      [
        "▁difference",
        -9.304400932835948
      ],
      [
        "▁Indian",
        -9.305704150036153
      ],
      [
        "van",
        -9.306087301414252
      ],
      [
        "▁longer",
        -9.306088314739487
      ],
      [
        "▁clear",
        -9.306211190638308
      ],
      [
        "▁White",
        -9.306670289017731
      ],
      [
        "▁generate",
        -9.306710032041856
      ],
      [
        "lam",
        -9.306775134380661
      ],
      [
        "▁tweet",
        -9.307137649704629
      ],
      [
        "▁added",
        -9.307150734295826
      ],
      [
        "▁background",
        -9.307432570141124
      ],
      [
        "▁hospital",
        -9.307685786896776
      ],
      [
        "▁sister",
        -9.308087714176285
      ],
      [
        "▁join",
        -9.308383775651945
      ],
      [
        "tch",
        -9.308990929268331
      ],
      [
        "▁da",
        -9.309268958365415
      ],
      [
        "▁model",
        -9.309795897518349
      ],
      [
        "▁com",
        -9.310139496468405
      ],
      [
        "▁political",
        -9.31043238353434
      ],
      [
        "▁improve",
        -9.31043256713594
      ],
      [
        "▁pe",
        -9.311165318274018
      ],
      [
        "wo",
        -9.311304450480176
      ],
      [
        "▁player",
        -9.311432777238302
      ],
      [
        "board",
        -9.312023585422967
      ],
      [
        "work",
        -9.312511217514645
      ],
      [
        "▁meet",
        -9.313975943466737
      ],
      [
        "▁media",
        -9.314855309364443
      ],
      [
        "rough",
        -9.315240974661346
      ],
      [
        "▁drink",
        -9.316270350350763
      ],
      [
        "▁race",
        -9.317117012214215
      ],
      [
        "▁floor",
        -9.317613953206635
      ],
      [
        "▁Park",
        -9.317955833609908
      ],
      [
        "▁email",
        -9.318162956721427
      ],
      [
        "▁\"B",
        -9.318357293447152
      ],
      [
        "▁equal",
        -9.31900392528019
      ],
      [
        "▁quarter",
        -9.319147396079401
      ],
      [
        "▁guess",
        -9.319274152085576
      ],
      [
        "▁personal",
        -9.320142722789171
      ],
      [
        "lor",
        -9.320164585117004
      ],
      [
        "dia",
        -9.320376571084703
      ],
      [
        "▁share",
        -9.320462088744526
      ],
      [
        "▁Fe",
        -9.320848471498186
      ],
      [
        "▁save",
        -9.321067254207739
      ],
      [
        "▁enter",
        -9.321258961244304
      ],
      [
        "▁Ben",
        -9.322747650924814
      ],
      [
        "▁supposed",
        -9.323581780153342
      ],
      [
        "▁shot",
        -9.323992866431734
      ],
      [
        "zz",
        -9.324210872402649
      ],
      [
        "▁killed",
        -9.324980984399538
      ],
      [
        "▁ga",
        -9.325091415526074
      ],
      [
        "▁trip",
        -9.32526279456937
      ],
      [
        "▁response",
        -9.325948845533
      ],
      [
        "ban",
        -9.326810597842798
      ],
      [
        "▁certain",
        -9.327652261589844
      ],
      [
        "▁Comprehension",
        -9.328185130418756
      ],
      [
        "▁attend",
        -9.328505998779908
      ],
      [
        "▁includes",
        -9.328636353707287
      ],
      [
        "ble",
        -9.328931090255995
      ],
      [
        "▁War",
        -9.329248414487553
      ],
      [
        "▁Are",
        -9.329470356914282
      ],
      [
        "▁hot",
        -9.329985463761295
      ],
      [
        "ou",
        -9.330045128346558
      ],
      [
        "▁Fact",
        -9.330151963999509
      ],
      [
        "▁tell\n",
        -9.330411045775813
      ],
      [
        "▁Cha",
        -9.330463937507758
      ],
      [
        "▁interest",
        -9.331095284227265
      ],
      [
        "▁north",
        -9.33177057195085
      ],
      [
        "▁mark",
        -9.332514038371071
      ],
      [
        "▁European",
        -9.333685825847281
      ],
      [
        "▁Europe",
        -9.333755087388635
      ],
      [
        "▁James",
        -9.33394766127152
      ],
      [
        "▁wood",
        -9.334075437081403
      ],
      [
        "▁step-by-step",
        -9.334247131147599
      ],
      [
        "▁performance",
        -9.334575238131077
      ],
      [
        "br",
        -9.334983652903732
      ],
      [
        "ants",
        -9.335715269186505
      ],
      [
        "ost",
        -9.336032997663265
      ],
      [
        "app",
        -9.33641695913494
      ],
      [
        "▁album,",
        -9.336848412901794
      ],
      [
        "▁Now,",
        -9.337891580050103
      ],
      [
        "▁wait",
        -9.338134003593819
      ],
      [
        "▁Tri",
        -9.338183690577662
      ],
      [
        "zi",
        -9.338219616947006
      ],
      [
        "▁kids",
        -9.338238784160263
      ],
      [
        "ski",
        -9.338445591691386
      ],
      [
        "▁saying",
        -9.338717261192226
      ],
      [
        "▁Air",
        -9.338718473880181
      ],
      [
        "▁led",
        -9.339293042509837
      ],
      [
        "▁changes",
        -9.339909500717384
      ],
      [
        "▁State",
        -9.341312590341126
      ],
      [
        "▁center",
        -9.341437999071886
      ],
      [
        "▁force",
        -9.341688171672356
      ],
      [
        "▁focus",
        -9.342357714532778
      ],
      [
        "000",
        -9.342490430215765
      ],
      [
        "▁En",
        -9.342663825866335
      ],
      [
        "▁from:",
        -9.342839333985625
      ],
      [
        "▁tr",
        -9.343323954344093
      ],
      [
        "▁hu",
        -9.343515191253118
      ],
      [
        "▁produced",
        -9.343946179568666
      ],
      [
        "▁feet",
        -9.344046909829837
      ],
      [
        ".\n\nThe",
        -9.34468922381437
      ],
      [
        "▁issue",
        -9.345731228672893
      ],
      [
        "cho",
        -9.345738221786586
      ],
      [
        "pri",
        -9.345986283097302
      ],
      [
        "gin",
        -9.347193231102096
      ],
      [
        "▁Com",
        -9.347553058967023
      ],
      [
        "ability",
        -9.347629739265395
      ],
      [
        "ged",
        -9.347893905742033
      ],
      [
        "istic",
        -9.348011020738152
      ],
      [
        "▁represent",
        -9.348566376529384
      ],
      [
        "par",
        -9.348593346020794
      ],
      [
        "▁non-",
        -9.348695516918337
      ],
      [
        "▁j",
        -9.348778263599389
      ],
      [
        "▁tried",
        -9.349697460801123
      ],
      [
        "▁measure",
        -9.349698201036365
      ],
      [
        "▁accept",
        -9.349761715704275
      ],
      [
        "ink",
        -9.351771620238877
      ],
      [
        "▁Green",
        -9.35180419305366
      ],
      [
        "▁twice",
        -9.351975925978158
      ],
      [
        "ev",
        -9.35262697392011
      ],
      [
        "▁comment",
        -9.352683838812807
      ],
      [
        "▁search",
        -9.353720189968493
      ],
      [
        "q",
        -9.354348024835794
      ],
      [
        "▁everyone",
        -9.35457844165347
      ],
      [
        "X",
        -9.354975627275437
      ],
      [
        "▁capital",
        -9.356382583094554
      ],
      [
        "▁allow",
        -9.356422246469101
      ],
      [
        "▁green",
        -9.356514431658628
      ],
      [
        "▁score",
        -9.356698801963432
      ],
      [
        "▁news",
        -9.35772057846616
      ],
      [
        "▁figure",
        -9.359458372506554
      ],
      [
        "▁shows",
        -9.359872807927264
      ],
      [
        "▁offer",
        -9.361956497546743
      ],
      [
        "▁day.",
        -9.362334791115583
      ],
      [
        "▁Hi",
        -9.363466383700146
      ],
      [
        "▁cold",
        -9.36350825402305
      ],
      [
        "es,",
        -9.363517150087667
      ],
      [
        "▁collect",
        -9.363575205129134
      ],
      [
        "▁Sea",
        -9.364294535184845
      ],
      [
        "▁title:",
        -9.364390918012912
      ],
      [
        "▁\"C",
        -9.364542146925587
      ],
      [
        "▁style",
        -9.364634706907772
      ],
      [
        "▁disease",
        -9.364877993023345
      ],
      [
        "Possible",
        -9.365834012077041
      ],
      [
        "▁label",
        -9.366433538342086
      ],
      [
        "▁yet",
        -9.36644544775236
      ],
      [
        "▁deep",
        -9.366666259066765
      ],
      [
        "▁bag",
        -9.366704729134643
      ],
      [
        "▁receive",
        -9.366846832282597
      ],
      [
        "▁plants",
        -9.367099471571898
      ],
      [
        "▁East",
        -9.36710097411675
      ],
      [
        "▁worth",
        -9.3682926017426
      ],
      [
        "▁build",
        -9.369375669359787
      ],
      [
        "▁kill",
        -9.369456123559026
      ],
      [
        "▁south",
        -9.369482081510874
      ],
      [
        "▁B.",
        -9.369786166536317
      ],
      [
        "▁described",
        -9.369933490790178
      ],
      [
        "▁died",
        -9.37043594659783
      ],
      [
        "▁bank",
        -9.370655583517692
      ],
      [
        "▁specific",
        -9.372010967376442
      ],
      [
        "▁institution",
        -9.372225256309564
      ],
      [
        "–",
        -9.372882799442731
      ],
      [
        "▁heard",
        -9.373749915238484
      ],
      [
        "▁stage",
        -9.37526327041775
      ],
      [
        "▁Ac",
        -9.376345270656905
      ],
      [
        "▁murder",
        -9.376346783067651
      ],
      [
        "▁-lrb-",
        -9.376933300950238
      ],
      [
        "▁remember",
        -9.376933307604805
      ],
      [
        "▁-rrb-",
        -9.377521191351128
      ],
      [
        "▁further",
        -9.377521640446465
      ],
      [
        "▁fo",
        -9.377983180188634
      ],
      [
        "▁Detail",
        -9.378272117805066
      ],
      [
        "▁tax",
        -9.378297757022288
      ],
      [
        "▁sell",
        -9.379848299151343
      ],
      [
        "▁throw",
        -9.379926486064157
      ],
      [
        "▁development",
        -9.380036854774136
      ],
      [
        "tail",
        -9.380070200016217
      ],
      [
        "▁source",
        -9.380354383994902
      ],
      [
        "ade",
        -9.381687103281543
      ],
      [
        "▁wa",
        -9.382291710155382
      ],
      [
        "▁tells",
        -9.382753787428065
      ],
      [
        "▁sent",
        -9.383001849380548
      ],
      [
        "form",
        -9.383918087209484
      ],
      [
        "\n\nHow",
        -9.383921047990121
      ],
      [
        "▁ship",
        -9.383927883596744
      ],
      [
        "▁function",
        -9.383933119438785
      ],
      [
        "▁television",
        -9.384037450259514
      ],
      [
        "mor",
        -9.385193214847511
      ],
      [
        "▁Comparison",
        -9.38578857066662
      ],
      [
        "▁quickly",
        -9.386264749529587
      ],
      [
        "▁eyes",
        -9.386573509928535
      ],
      [
        "▁host",
        -9.386863232244679
      ],
      [
        "▁loss",
        -9.386954141142965
      ],
      [
        "▁First",
        -9.38697569433954
      ],
      [
        "ttle",
        -9.387342596303338
      ],
      [
        "ugh",
        -9.388679039164678
      ],
      [
        "▁river",
        -9.388701154492832
      ],
      [
        "▁describe",
        -9.389983877027834
      ],
      [
        "▁discover",
        -9.390094782200453
      ],
      [
        "▁Ge",
        -9.390280998702217
      ],
      [
        "▁rating",
        -9.390294934828232
      ],
      [
        "▁Du",
        -9.390988006042752
      ],
      [
        "▁general",
        -9.391606003110233
      ],
      [
        "hal",
        -9.392380049354578
      ],
      [
        "not",
        -9.39279426127872
      ],
      [
        "rry",
        -9.393079708956005
      ],
      [
        "▁risk",
        -9.393580320271813
      ],
      [
        "▁artist",
        -9.393932181930673
      ],
      [
        "▁felt",
        -9.394136945078591
      ],
      [
        "uc",
        -9.394451200891115
      ],
      [
        "▁worked",
        -9.397432118191656
      ],
      [
        "▁day,",
        -9.397670603823148
      ],
      [
        "▁warm",
        -9.40014292788561
      ],
      [
        "▁mar",
        -9.400338878174754
      ],
      [
        "nes",
        -9.400364114378483
      ],
      [
        "▁leg",
        -9.401241523486515
      ],
      [
        "ford",
        -9.401297156904775
      ],
      [
        "▁oil",
        -9.402114432496477
      ],
      [
        "▁leaves",
        -9.40225594832605
      ],
      [
        "▁Add",
        -9.402916186898098
      ],
      [
        "▁County",
        -9.403274802709824
      ],
      [
        "▁summer",
        -9.40328806253872
      ],
      [
        "▁spent",
        -9.404351257818819
      ],
      [
        "▁match",
        -9.404587810204621
      ],
      [
        "▁rather",
        -9.404701739950589
      ],
      [
        "▁21",
        -9.405340307285961
      ],
      [
        "▁especially",
        -9.406154221751965
      ],
      [
        "▁Win",
        -9.406860386882219
      ],
      [
        "right",
        -9.407352459431534
      ],
      [
        "ek",
        -9.407414966263282
      ],
      [
        "▁enjoy",
        -9.407432845833725
      ],
      [
        "▁available",
        -9.40857775234241
      ],
      [
        "▁Bur",
        -9.409457438092069
      ],
      [
        "▁created",
        -9.409745976176144
      ],
      [
        "▁practice",
        -9.411007154737284
      ],
      [
        "▁poor",
        -9.41233988525238
      ],
      [
        "▁seven",
        -9.412368626616635
      ],
      [
        "uch",
        -9.41352717968958
      ],
      [
        "nia",
        -9.413626042786046
      ],
      [
        "▁time,",
        -9.415111742373334
      ],
      [
        "▁Restaurant",
        -9.415272825995874
      ],
      [
        "ria",
        -9.416264153370854
      ],
      [
        "\nPick",
        -9.417443093598077
      ],
      [
        "▁whose",
        -9.417540430999635
      ],
      [
        "▁numbers",
        -9.41774076009782
      ],
      [
        "▁mass",
        -9.417879838816003
      ],
      [
        "▁Fu",
        -9.418662824778469
      ],
      [
        "'ll",
        -9.418674098287429
      ],
      [
        "dent",
        -9.418897602631862
      ],
      [
        "du",
        -9.41893303820206
      ],
      [
        "▁officer",
        -9.419111381318825
      ],
      [
        "▁Mary",
        -9.41911974001002
      ],
      [
        "+",
        -9.419217475679034
      ],
      [
        "bra",
        -9.419478590603877
      ],
      [
        "vel",
        -9.419922187462117
      ],
      [
        ">",
        -9.420170288684886
      ],
      [
        "back",
        -9.420612197612304
      ],
      [
        "but",
        -9.420945498354701
      ],
      [
        "▁lo",
        -9.421176212480113
      ],
      [
        "▁file",
        -9.421727361231113
      ],
      [
        "▁moved",
        -9.42248277702135
      ],
      [
        "▁professional",
        -9.424025006666122
      ],
      [
        "mate",
        -9.425441922420868
      ],
      [
        "▁window",
        -9.426510205738108
      ],
      [
        "ned",
        -9.426554978778015
      ],
      [
        "▁tree",
        -9.426671337585391
      ],
      [
        "▁Che",
        -9.426685003057946
      ],
      [
        "▁characters",
        -9.427890255331079
      ],
      [
        "▁themselves",
        -9.42879903587265
      ],
      [
        "▁impact",
        -9.429271959919708
      ],
      [
        "▁husband",
        -9.431279979703998
      ],
      [
        "▁River",
        -9.432117950766969
      ],
      [
        "▁site",
        -9.434764839448212
      ],
      [
        "▁returns",
        -9.435226809396976
      ],
      [
        "▁People",
        -9.436102136955824
      ],
      [
        "ett",
        -9.43621282876429
      ],
      [
        "▁coffee",
        -9.43625543448971
      ],
      [
        "▁Comp",
        -9.437155279008788
      ],
      [
        "▁Un",
        -9.43765753716126
      ],
      [
        "▁sit",
        -9.438034613700065
      ],
      [
        "▁June",
        -9.439050721623268
      ],
      [
        "ates",
        -9.439179510865575
      ],
      [
        "▁High",
        -9.439251938674424
      ],
      [
        "▁fast",
        -9.43988380200849
      ],
      [
        "▁Dan",
        -9.439968777751368
      ],
      [
        "▁tri",
        -9.440795817541709
      ],
      [
        "▁sometimes",
        -9.442549865185125
      ],
      [
        "▁Pu",
        -9.443133097126939
      ],
      [
        "▁I've",
        -9.444403722253286
      ],
      [
        "▁speed",
        -9.445100292294072
      ],
      [
        "'d",
        -9.445493158037582
      ],
      [
        "▁options:",
        -9.44553055451594
      ],
      [
        "mal",
        -9.447340352393397
      ],
      [
        "▁command",
        -9.4475631211491
      ],
      [
        "We",
        -9.448123102253787
      ],
      [
        "ong",
        -9.44869417890463
      ],
      [
        "▁Choices:",
        -9.44880600645285
      ],
      [
        "▁middle",
        -9.44884642367434
      ],
      [
        "▁Chris",
        -9.448943717333517
      ],
      [
        "▁message",
        -9.449620465064132
      ],
      [
        "▁turned",
        -9.450502699664812
      ],
      [
        ".\n\nWhat",
        -9.450507126067045
      ],
      [
        "▁Per",
        -9.450694238306795
      ],
      [
        "\n\nWhat",
        -9.45132350886851
      ],
      [
        "▁bill",
        -9.452077729445113
      ],
      [
        "▁During",
        -9.452113250635644
      ],
      [
        "▁ob",
        -9.452129598238358
      ],
      [
        "▁uses",
        -9.452287074390743
      ],
      [
        "▁previous",
        -9.452538910017765
      ],
      [
        "▁drug",
        -9.452703070948624
      ],
      [
        "▁work,",
        -9.453145594748655
      ],
      [
        "▁Mr",
        -9.453334043394717
      ],
      [
        "body",
        -9.454871663779052
      ],
      [
        "▁im",
        -9.454982297723948
      ],
      [
        "where",
        -9.455022618640173
      ],
      [
        "▁Washington",
        -9.455141141694554
      ],
      [
        "▁concern",
        -9.455141369633198
      ],
      [
        "12",
        -9.45550611137503
      ],
      [
        "▁listen",
        -9.45613004246523
      ],
      [
        "▁disc",
        -9.458521713785453
      ],
      [
        "▁protect",
        -9.459858368778931
      ],
      [
        "▁knew",
        -9.4602491851669
      ],
      [
        "▁farm",
        -9.461634443200545
      ],
      [
        "car",
        -9.461802100749637
      ],
      [
        "▁ro",
        -9.462101296726951
      ],
      [
        "▁potential",
        -9.462156556204953
      ],
      [
        "▁contact",
        -9.462160316973744
      ],
      [
        "name",
        -9.462544184070966
      ],
      [
        "ung",
        -9.462920179090013
      ],
      [
        "▁cells",
        -9.464321153869252
      ],
      [
        "like",
        -9.465911600156286
      ],
      [
        "▁damage",
        -9.466037117081074
      ],
      [
        "rid",
        -9.46711359421884
      ],
      [
        "▁thinking",
        -9.467369982080761
      ],
      [
        "▁range",
        -9.467937121418998
      ],
      [
        "▁happened",
        -9.468381158987501
      ],
      [
        "▁lives",
        -9.469056012742765
      ],
      [
        "▁Day",
        -9.469166322404307
      ],
      [
        "▁moment",
        -9.46937206244478
      ],
      [
        "▁Jack",
        -9.469463157394559
      ],
      [
        "▁board",
        -9.470242625203905
      ],
      [
        "▁events",
        -9.470650222383757
      ],
      [
        "gy",
        -9.47112983839358
      ],
      [
        "▁becomes",
        -9.471325867397928
      ],
      [
        "▁ju",
        -9.472337008729852
      ],
      [
        "verse",
        -9.47268415109189
      ],
      [
        "▁parts",
        -9.473246807816228
      ],
      [
        "ute",
        -9.473789134136283
      ],
      [
        "bl",
        -9.473876252845955
      ],
      [
        "▁serious",
        -9.47439509290222
      ],
      [
        "He",
        -9.474641593165071
      ],
      [
        "▁successful",
        -9.475533742177376
      ],
      [
        "▁Act",
        -9.476079059031886
      ],
      [
        "▁argument",
        -9.476336832370322
      ],
      [
        "born",
        -9.476640260791843
      ],
      [
        "struct",
        -9.476801596852578
      ],
      [
        "▁Text",
        -9.477015243584752
      ],
      [
        "yl",
        -9.479954446717887
      ],
      [
        "▁.\n",
        -9.480834979324177
      ],
      [
        "▁Use",
        -9.480884914117684
      ],
      [
        "▁According",
        -9.480927612782239
      ],
      [
        "▁Water",
        -9.481140618752136
      ],
      [
        "▁April",
        -9.481553195503821
      ],
      [
        "▁base",
        -9.48224629992553
      ],
      [
        "▁stream",
        -9.48242426290654
      ],
      [
        "▁fourth",
        -9.482573960894545
      ],
      [
        "▁states",
        -9.482764887918746
      ],
      [
        "▁cool",
        -9.483200370140413
      ],
      [
        "▁hands",
        -9.483244127430988
      ],
      [
        "▁Game",
        -9.483718439808433
      ],
      [
        "▁October",
        -9.484811100461709
      ],
      [
        "▁voice",
        -9.485480956114646
      ],
      [
        "▁Math",
        -9.486399958572854
      ],
      [
        "cus",
        -9.486648294645065
      ],
      [
        "ara",
        -9.486783169383411
      ],
      [
        "▁athlete",
        -9.487434157040624
      ],
      [
        "▁dress",
        -9.487542610637913
      ],
      [
        "▁looked",
        -9.487841936903791
      ],
      [
        "▁Great",
        -9.488445198613665
      ],
      [
        "well",
        -9.488625157820719
      ],
      [
        "stor",
        -9.489282896606298
      ],
      [
        "▁January",
        -9.491379472469287
      ],
      [
        "▁nice",
        -9.491681232474022
      ],
      [
        "▁burn",
        -9.491802416528117
      ],
      [
        "▁mu",
        -9.492311550604397
      ],
      [
        "pec",
        -9.492751278758277
      ],
      [
        "set",
        -9.493158955303187
      ],
      [
        "▁belong",
        -9.493807176336071
      ],
      [
        "▁Michael",
        -9.493983174473975
      ],
      [
        "▁George",
        -9.494020081937341
      ],
      [
        "▁block",
        -9.494917088346638
      ],
      [
        "▁March",
        -9.495480205232052
      ],
      [
        "lly",
        -9.496547836618209
      ],
      [
        "▁entity",
        -9.496775864851472
      ],
      [
        "pen",
        -9.498118880210166
      ],
      [
        "▁extra",
        -9.49942482262631
      ],
      [
        "If",
        -9.499569804987651
      ],
      [
        "▁yourself",
        -9.499983715645055
      ],
      [
        "▁carbon",
        -9.501337878801223
      ],
      [
        "▁2010",
        -9.501724364435916
      ],
      [
        "▁September",
        -9.501978902783218
      ],
      [
        "▁deliver",
        -9.501981101764896
      ],
      [
        "▁baby",
        -9.502202318545653
      ],
      [
        "▁eight",
        -9.50221927767856
      ],
      [
        "▁evidence",
        -9.502645154524604
      ],
      [
        "▁chemical",
        -9.503312472547204
      ],
      [
        "▁Ch",
        -9.5033141107431
      ],
      [
        "▁November",
        -9.503978905488896
      ],
      [
        "nie",
        -9.504815210627584
      ],
      [
        "▁missing",
        -9.504919796730478
      ],
      [
        "▁oxygen",
        -9.505314476840297
      ],
      [
        "▁normal",
        -9.505342875593282
      ],
      [
        "▁entire",
        -9.506005551858976
      ],
      [
        "xi",
        -9.50644539736285
      ],
      [
        "`",
        -9.506647981812584
      ],
      [
        "▁App",
        -9.50721381155958
      ],
      [
        "▁push",
        -9.507336457593242
      ],
      [
        "$",
        -9.507667122532428
      ],
      [
        "▁legal",
        -9.508554006662937
      ],
      [
        "▁Step",
        -9.509140402707922
      ],
      [
        "▁prevent",
        -9.510029510091481
      ],
      [
        "▁wearing",
        -9.511347770186486
      ],
      [
        "▁simple",
        -9.512077517427764
      ],
      [
        "ä",
        -9.512692094897965
      ],
      [
        "▁older",
        -9.512776302282425
      ],
      [
        "▁Sho",
        -9.512969180134343
      ],
      [
        "▁begin",
        -9.51307333445994
      ],
      [
        "lli",
        -9.513129281204094
      ],
      [
        "▁exercise",
        -9.513365506741017
      ],
      [
        "▁Gi",
        -9.51381857630637
      ],
      [
        "▁choices",
        -9.513854289017731
      ],
      [
        "▁Bill",
        -9.514981668915933
      ],
      [
        "▁consider",
        -9.51519865185422
      ],
      [
        "▁al",
        -9.515665601470753
      ],
      [
        "▁wi",
        -9.51670570337677
      ],
      [
        "▁(1",
        -9.517266016371964
      ],
      [
        "▁female",
        -9.52080658126955
      ],
      [
        "▁serve",
        -9.521267587863441
      ],
      [
        "▁jump",
        -9.521313780604528
      ],
      [
        "▁physical",
        -9.52148402922615
      ],
      [
        "▁December",
        -9.522161255678105
      ],
      [
        "▁bio",
        -9.52258790954748
      ],
      [
        "▁vote",
        -9.523243298788536
      ],
      [
        "▁beautiful",
        -9.523521303813503
      ],
      [
        "▁exist",
        -9.523584809957667
      ],
      [
        "▁2012",
        -9.523786840629962
      ],
      [
        "▁gun",
        -9.524106866760132
      ],
      [
        "▁August",
        -9.524202439124215
      ],
      [
        "▁hear",
        -9.524707953496337
      ],
      [
        "▁isn't",
        -9.525017594816559
      ],
      [
        "▁manager",
        -9.525161468024915
      ],
      [
        "▁leader",
        -9.525173188570928
      ],
      [
        "▁material",
        -9.525204612520696
      ],
      [
        "lit",
        -9.5252054131853
      ],
      [
        "▁Most",
        -9.52531971186962
      ],
      [
        "▁various",
        -9.525568680653016
      ],
      [
        "▁wind",
        -9.525982486015057
      ],
      [
        "▁develop",
        -9.525986587805761
      ],
      [
        "▁Je",
        -9.526244736387925
      ],
      [
        "ave",
        -9.526438882102775
      ],
      [
        "▁complex",
        -9.527010428266074
      ],
      [
        "ov",
        -9.527070030617086
      ],
      [
        ".\"\nH",
        -9.527212682394062
      ],
      [
        "▁cross",
        -9.527633309715913
      ],
      [
        "▁screen",
        -9.52769237807707
      ],
      [
        "15",
        -9.528005550808889
      ],
      [
        "▁seat",
        -9.528581933166963
      ],
      [
        "▁Brown",
        -9.52867717277739
      ],
      [
        "▁describes",
        -9.529771985577659
      ],
      [
        "over",
        -9.529799311360687
      ],
      [
        "▁provided",
        -9.530254420678427
      ],
      [
        "▁fix",
        -9.530414495317814
      ],
      [
        "\nOutput:",
        -9.531034999817471
      ],
      [
        "▁document",
        -9.531038299655833
      ],
      [
        "▁Am",
        -9.531253331356064
      ],
      [
        "▁effort",
        -9.53172113608192
      ],
      [
        "▁Tweet",
        -9.531721187191863
      ],
      [
        "▁machine",
        -9.531721584211072
      ],
      [
        "▁wide",
        -9.532920173790465
      ],
      [
        "▁complete",
        -9.534184536131093
      ],
      [
        "▁said,",
        -9.534763574772942
      ],
      [
        "▁easy",
        -9.53516202838096
      ],
      [
        "\nI",
        -9.535399641805459
      ],
      [
        "▁organ",
        -9.535658614927897
      ],
      [
        "▁\"D",
        -9.536304236541408
      ],
      [
        "multi-choice",
        -9.53704784390398
      ],
      [
        "▁brought",
        -9.537227908508612
      ],
      [
        "▁King",
        -9.537396956782437
      ],
      [
        "▁length",
        -9.537915191714589
      ],
      [
        ".\"?\nOptions:\n",
        -9.538017938575093
      ],
      [
        "▁tu",
        -9.538351602515295
      ],
      [
        "Entailment",
        -9.538608184752867
      ],
      [
        "▁structure",
        -9.538634815647093
      ],
      [
        "▁July",
        -9.53945898019478
      ],
      [
        "cle",
        -9.539628489918622
      ],
      [
        "▁coming",
        -9.540047886125501
      ],
      [
        "ix",
        -9.540296110418076
      ],
      [
        "▁begins",
        -9.540942752099815
      ],
      [
        "▁Italian",
        -9.542078914696011
      ],
      [
        "▁songs",
        -9.54249434914529
      ],
      [
        "▁eye",
        -9.543623332646398
      ],
      [
        "press",
        -9.54401746847874
      ],
      [
        "▁suppose",
        -9.544316407466471
      ],
      [
        "ray",
        -9.545942207052041
      ],
      [
        "▁India",
        -9.545962190579761
      ],
      [
        "▁row",
        -9.546139210006677
      ],
      [
        "direct",
        -9.546305061005391
      ],
      [
        ".\"?",
        -9.547545638989696
      ],
      [
        "▁although",
        -9.548324678399204
      ],
      [
        "-up",
        -9.548849964549019
      ],
      [
        "ome",
        -9.550572534194846
      ],
      [
        "▁formed",
        -9.550598205969262
      ],
      [
        "▁Plot",
        -9.552539638964255
      ],
      [
        "▁returned",
        -9.553459685970815
      ],
      [
        "▁piece",
        -9.553866930825013
      ],
      [
        "vision",
        -9.553964863796512
      ],
      [
        "▁dark",
        -9.554078442648999
      ],
      [
        "▁built",
        -9.555325182607621
      ],
      [
        "▁gold",
        -9.555469378481217
      ],
      [
        "▁fine",
        -9.555964873246705
      ],
      [
        "▁expect",
        -9.556553081438686
      ],
      [
        "urs",
        -9.557014240517137
      ],
      [
        "▁expected",
        -9.557094277818228
      ],
      [
        "▁2014",
        -9.557621813865008
      ],
      [
        "▁environment",
        -9.557633782172154
      ],
      [
        "▁speak",
        -9.55813649426317
      ],
      [
        "▁Friday",
        -9.558139749458968
      ],
      [
        "▁round",
        -9.5584164643976
      ],
      [
        "▁production",
        -9.558487391570083
      ],
      [
        "ari",
        -9.558555598616952
      ],
      [
        "▁modern",
        -9.55955411282413
      ],
      [
        "▁approach",
        -9.560255144179227
      ],
      [
        "▁...",
        -9.560685086117308
      ],
      [
        "stance",
        -9.560850656351437
      ],
      [
        "▁pen",
        -9.560919322971529
      ],
      [
        "▁ability",
        -9.561000453718513
      ],
      [
        "▁operation",
        -9.561110013986227
      ],
      [
        "▁continue",
        -9.56163871712702
      ],
      [
        "▁Location",
        -9.563197707827001
      ],
      [
        "▁Sunday",
        -9.563200381461565
      ],
      [
        "90",
        -9.563989364633786
      ],
      [
        "▁Ab",
        -9.564348661966012
      ],
      [
        "lies",
        -9.564394101580017
      ],
      [
        "▁cla",
        -9.565132702872205
      ],
      [
        "▁fund",
        -9.565280615070915
      ],
      [
        "▁novel",
        -9.566159203651075
      ],
      [
        "▁Just",
        -9.566180323457527
      ],
      [
        "ease",
        -9.566227105610665
      ],
      [
        "▁access",
        -9.566630400394425
      ],
      [
        "▁2011",
        -9.566859483199986
      ],
      [
        "▁slow",
        -9.566892797563934
      ],
      [
        "▁TD",
        -9.566893322040094
      ],
      [
        ".\n\"",
        -9.567009699343886
      ],
      [
        "mes",
        -9.56780651084826
      ],
      [
        "▁Hol",
        -9.568413506753247
      ],
      [
        "▁£",
        -9.568799070198338
      ],
      [
        "▁talking",
        -9.569282684761081
      ],
      [
        "▁seems",
        -9.569976831724404
      ],
      [
        "nny",
        -9.570371892539743
      ],
      [
        "▁Monday",
        -9.570423192456726
      ],
      [
        "▁Frank",
        -9.571473684749193
      ],
      [
        "▁towards",
        -9.571661582487847
      ],
      [
        "▁Ber",
        -9.571863226580078
      ],
      [
        "▁snow",
        -9.572165969339721
      ],
      [
        "▁category",
        -9.573043276952282
      ],
      [
        "▁agree",
        -9.573810671838828
      ],
      [
        "▁camp",
        -9.57436537932547
      ],
      [
        "▁Even",
        -9.575510007151411
      ],
      [
        "▁res",
        -9.575924353361366
      ],
      [
        "▁gain",
        -9.576354781437264
      ],
      [
        "▁choice",
        -9.576694898568414
      ],
      [
        "unk",
        -9.57681265551636
      ],
      [
        "▁church",
        -9.578076092085155
      ],
      [
        "▁related",
        -9.578087122854548
      ],
      [
        "ists",
        -9.578515384357114
      ],
      [
        "er.",
        -9.578587696364924
      ],
      [
        "▁pop",
        -9.579031281800692
      ],
      [
        ".\n\nS",
        -9.57942341252105
      ],
      [
        "▁owner",
        -9.579989704895661
      ],
      [
        "▁quite",
        -9.58020076041151
      ],
      [
        "▁military",
        -9.580219536731612
      ],
      [
        "ree",
        -9.58158029169131
      ],
      [
        "cha",
        -9.582030385895319
      ],
      [
        "▁guy",
        -9.582097897420006
      ],
      [
        "▁Other",
        -9.582625299286253
      ],
      [
        "▁Many",
        -9.583192215124054
      ],
      [
        "▁bed",
        -9.583843591719312
      ],
      [
        "▁Czech",
        -9.584066723061767
      ],
      [
        "▁Extract",
        -9.584564285706998
      ],
      [
        "▁Cu",
        -9.585024257611162
      ],
      [
        "▁science",
        -9.58527589858127
      ],
      [
        "▁giving",
        -9.58600289818682
      ],
      [
        "▁international",
        -9.586722526642983
      ],
      [
        "▁place,",
        -9.587554418452985
      ],
      [
        "ically",
        -9.588486337171815
      ],
      [
        "▁rule",
        -9.588631989659188
      ],
      [
        "▁transportation",
        -9.588676102304479
      ],
      [
        "ax",
        -9.589093381717925
      ],
      [
        "40",
        -9.589402908232945
      ],
      [
        "▁campaign",
        -9.5896267675774
      ],
      [
        "▁method",
        -9.589629704409013
      ],
      [
        "ood",
        -9.590044915235847
      ],
      [
        "▁girls",
        -9.591175081667178
      ],
      [
        "▁developed",
        -9.591648362710789
      ],
      [
        "▁weather",
        -9.591825990253806
      ],
      [
        "▁terms",
        -9.592734214254254
      ],
      [
        "ik",
        -9.594289946805258
      ],
      [
        "▁animal",
        -9.594762569194032
      ],
      [
        "field",
        -9.595367418571982
      ],
      [
        "▁recent",
        -9.59546836209287
      ],
      [
        "▁Classification",
        -9.596273785653713
      ],
      [
        "▁educational",
        -9.5966127776299
      ],
      [
        "bel",
        -9.59677007265573
      ],
      [
        "▁election",
        -9.596963759931558
      ],
      [
        "▁direction",
        -9.597427717574748
      ],
      [
        "char",
        -9.59905505097948
      ],
      [
        "▁eating",
        -9.599866105921564
      ],
      [
        "night",
        -9.599941835677201
      ],
      [
        "▁22",
        -9.600632534081397
      ],
      [
        "▁Black",
        -9.600796480479733
      ],
      [
        "▁writer",
        -9.601095794758855
      ],
      [
        "▁company,",
        -9.601188815203178
      ],
      [
        "▁invest",
        -9.601282613078705
      ],
      [
        "▁safe",
        -9.601577376808915
      ],
      [
        "tty",
        -9.602256250496946
      ],
      [
        "▁published",
        -9.602526437592324
      ],
      [
        "▁acid",
        -9.60274820170025
      ],
      [
        "▁picture",
        -9.602775222912602
      ],
      [
        "▁however,",
        -9.604454178017214
      ],
      [
        "18",
        -9.605415820374414
      ],
      [
        "▁Head",
        -9.60575350474684
      ],
      [
        "▁fruit",
        -9.606633052611752
      ],
      [
        "It",
        -9.606735811649948
      ],
      [
        "\nS",
        -9.606962858064364
      ],
      [
        "▁Tra",
        -9.607156833827712
      ],
      [
        "▁Australia",
        -9.607641485702423
      ],
      [
        "▁ocean",
        -9.608710111417619
      ],
      [
        "put",
        -9.60876315133357
      ],
      [
        "▁A.",
        -9.60885858734886
      ],
      [
        "lip",
        -9.608876275353015
      ],
      [
        "▁interview",
        -9.610261653256602
      ],
      [
        "▁Book",
        -9.610501688222685
      ],
      [
        "dle",
        -9.611328877942267
      ],
      [
        "▁eatType",
        -9.611677817061494
      ],
      [
        "▁decrease",
        -9.611678479709713
      ],
      [
        "▁moving",
        -9.611686189851323
      ],
      [
        "▁sitting",
        -9.612108817248902
      ],
      [
        "ole",
        -9.612208982259364
      ],
      [
        "▁trade",
        -9.614306931939929
      ],
      [
        "lum",
        -9.61536089020093
      ],
      [
        "▁claim",
        -9.616262871798247
      ],
      [
        "▁reported",
        -9.616448671379494
      ],
      [
        "▁village",
        -9.616642523198928
      ],
      [
        "70",
        -9.617068029710843
      ],
      [
        "▁accurate",
        -9.617641320430446
      ],
      [
        "▁suggest",
        -9.61769364989083
      ],
      [
        "▁regular",
        -9.618393763595773
      ],
      [
        "▁flow",
        -9.619239014224643
      ],
      [
        "▁happens,",
        -9.619295918091813
      ],
      [
        "▁gives",
        -9.619787974077868
      ],
      [
        "▁economic",
        -9.619886817998715
      ],
      [
        "▁knowledge",
        -9.619887304875341
      ],
      [
        "\nC",
        -9.620109386673587
      ],
      [
        "raw",
        -9.620610041867934
      ],
      [
        "▁pull",
        -9.620823277556532
      ],
      [
        "part",
        -9.620926373293985
      ],
      [
        "25",
        -9.621765471281392
      ],
      [
        "wood",
        -9.621882868469639
      ],
      [
        "▁itself",
        -9.622152391130463
      ],
      [
        "▁pain",
        -9.622229349294791
      ],
      [
        "ties",
        -9.623675932121774
      ],
      [
        "▁fit",
        -9.624463653531539
      ],
      [
        "▁alone",
        -9.625013513485806
      ],
      [
        "▁answers:",
        -9.625300008999524
      ],
      [
        "▁min",
        -9.625539650312852
      ],
      [
        "▁famous",
        -9.625900487760656
      ],
      [
        "AT",
        -9.62611981318091
      ],
      [
        "top",
        -9.626156030643212
      ],
      [
        "▁roll",
        -9.62621234108445
      ],
      [
        "▁fly",
        -9.626383168130115
      ],
      [
        "▁culture",
        -9.626930703630848
      ],
      [
        "▁Ke",
        -9.627104838848055
      ],
      [
        "els",
        -9.627171969983658
      ],
      [
        "eff",
        -9.628701788696965
      ],
      [
        "▁Robert",
        -9.629383119277032
      ],
      [
        "come",
        -9.629621752973577
      ],
      [
        "▁trans",
        -9.62970618448712
      ],
      [
        "▁Joe",
        -9.630008407010664
      ],
      [
        "▁definition",
        -9.630433445266245
      ],
      [
        "▁spot",
        -9.630545341777907
      ],
      [
        "▁pack",
        -9.630882828034228
      ],
      [
        "▁catch",
        -9.63092497401452
      ],
      [
        "sses",
        -9.631068266454594
      ],
      [
        "▁2008",
        -9.631378984118637
      ],
      [
        "iz",
        -9.631554785222388
      ],
      [
        "es.",
        -9.631611585743496
      ],
      [
        "▁mountain",
        -9.631949911562227
      ],
      [
        "▁topic",
        -9.632155852760533
      ],
      [
        "▁finally",
        -9.632392112842286
      ],
      [
        "▁Mac",
        -9.632551368623968
      ],
      [
        "izing",
        -9.633235648712914
      ],
      [
        "dra",
        -9.634725951685457
      ],
      [
        "rian",
        -9.634849024803358
      ],
      [
        "nc",
        -9.635905696290912
      ],
      [
        "▁ride",
        -9.636305002875886
      ],
      [
        "war",
        -9.63667385557967
      ],
      [
        "▁fu",
        -9.63725509543434
      ],
      [
        "▁Out",
        -9.637268423133806
      ],
      [
        "▁\"In",
        -9.637860146193734
      ],
      [
        "▁California",
        -9.638034761728191
      ],
      [
        "▁yards",
        -9.638089599398224
      ],
      [
        "▁forward",
        -9.638967751533938
      ],
      [
        "11",
        -9.63906101915406
      ],
      [
        "▁Va",
        -9.639787034487856
      ],
      [
        "▁standard",
        -9.639899543147907
      ],
      [
        "bor",
        -9.640039818466047
      ],
      [
        "▁partner",
        -9.6403457645988
      ],
      [
        "▁official",
        -9.640762090620266
      ],
      [
        "▁earlier",
        -9.64109308173111
      ],
      [
        "▁fat",
        -9.641189400008198
      ],
      [
        ".\nInput:",
        -9.641426987340946
      ],
      [
        "wn",
        -9.64157623957025
      ],
      [
        "▁caused",
        -9.641703518149988
      ],
      [
        "▁Miss",
        -9.642464031502639
      ],
      [
        "sco",
        -9.643267773743542
      ],
      [
        "▁currently",
        -9.643269141827084
      ],
      [
        "75",
        -9.645826160360823
      ],
      [
        "But",
        -9.646420097221565
      ],
      [
        "▁si",
        -9.6468828159135
      ],
      [
        "▁agent",
        -9.647018904784222
      ],
      [
        "▁simply",
        -9.647236161207324
      ],
      [
        "▁website",
        -9.64723798014361
      ],
      [
        "▁escape",
        -9.647238861170813
      ],
      [
        "▁avoid",
        -9.647260323895706
      ],
      [
        "ox",
        -9.647549006960942
      ],
      [
        "▁League",
        -9.648005043929455
      ],
      [
        "▁year.",
        -9.648190291071884
      ],
      [
        "▁results",
        -9.64854093787438
      ],
      [
        "▁products",
        -9.648560249811435
      ],
      [
        "▁followed",
        -9.648917134197056
      ],
      [
        "tta",
        -9.649600988568897
      ],
      [
        "house",
        -9.650053060176155
      ],
      [
        "▁user",
        -9.650444943549054
      ],
      [
        "\")",
        -9.650721634099025
      ],
      [
        "▁Japanese",
        -9.65114335437349
      ],
      [
        "get",
        -9.651707522704505
      ],
      [
        "▁hotel",
        -9.651861829441458
      ],
      [
        "▁Ti",
        -9.652190146907204
      ],
      [
        "▁stick",
        -9.652516388317999
      ],
      [
        "▁contract",
        -9.652658756966124
      ],
      [
        ".\nWhat",
        -9.653527009686542
      ],
      [
        "▁beginning",
        -9.653674503646414
      ],
      [
        "can",
        -9.6539107371316
      ],
      [
        "▁device",
        -9.654199324348152
      ],
      [
        "▁express",
        -9.654237971404914
      ],
      [
        "▁Sch",
        -9.654364700634353
      ],
      [
        "▁cup",
        -9.65462024722854
      ],
      [
        "▁throughout",
        -9.655357833663215
      ],
      [
        "▁award",
        -9.65563099120385
      ],
      [
        "▁otherwise",
        -9.656244224896447
      ],
      [
        "▁players",
        -9.6566555490692
      ],
      [
        "▁Pri",
        -9.656950669046951
      ],
      [
        "▁Peter",
        -9.657903103293897
      ],
      [
        "mark",
        -9.65793765527644
      ],
      [
        "pan",
        -9.657978780956856
      ],
      [
        "▁Equation",
        -9.658076131126194
      ],
      [
        "▁sex",
        -9.658150714462266
      ],
      [
        "▁education",
        -9.658567369170244
      ],
      [
        "▁Internet",
        -9.658949805434087
      ],
      [
        "▁pet",
        -9.659355008619292
      ],
      [
        "▁lu",
        -9.65963953659715
      ],
      [
        "▁drop",
        -9.66014100858832
      ],
      [
        "point",
        -9.660215378559052
      ],
      [
        "oth",
        -9.660273339743448
      ],
      [
        "die",
        -9.660403503250434
      ],
      [
        "▁significant",
        -9.660412281896132
      ],
      [
        "▁shirt",
        -9.660417401179913
      ],
      [
        "tag",
        -9.660931065681968
      ],
      [
        "▁walking",
        -9.661402316891127
      ],
      [
        "▁this:",
        -9.66170594706098
      ],
      [
        "try",
        -9.662122155948069
      ],
      [
        "▁D.",
        -9.662297129805118
      ],
      [
        "▁finds",
        -9.662609796206972
      ],
      [
        "Q",
        -9.663448544062685
      ],
      [
        "than",
        -9.663461161314535
      ],
      [
        "▁facts",
        -9.663537384641792
      ],
      [
        "▁attention",
        -9.663540940522092
      ],
      [
        "are",
        -9.663626018461596
      ],
      [
        "▁Red",
        -9.663931453628965
      ],
      [
        "▁Finnish",
        -9.664322150888484
      ],
      [
        "▁areas",
        -9.664559631337594
      ],
      [
        "▁paint",
        -9.665158319485371
      ],
      [
        "▁included",
        -9.665700333023924
      ],
      [
        "▁Because",
        -9.665828925765599
      ],
      [
        "▁foot",
        -9.666878692778983
      ],
      [
        "▁security",
        -9.667460042427011
      ],
      [
        "▁Alex",
        -9.667835157494324
      ],
      [
        "▁review:",
        -9.669149816205584
      ],
      [
        "lat",
        -9.670662036608174
      ],
      [
        "▁Cho",
        -9.670760555430341
      ],
      [
        "▁2009",
        -9.670796778079104
      ],
      [
        "tribute",
        -9.671052671116941
      ],
      [
        "▁Star",
        -9.671472348145144
      ],
      [
        "▁solve",
        -9.671602416901282
      ],
      [
        "teen",
        -9.671653651796518
      ],
      [
        "▁brain",
        -9.671702470651201
      ],
      [
        "pl",
        -9.671933674135522
      ],
      [
        "▁prison",
        -9.672193402217523
      ],
      [
        "▁quality",
        -9.672253749505884
      ],
      [
        "▁sales",
        -9.672663579150624
      ],
      [
        "▁dinner",
        -9.672981799225406
      ],
      [
        "▁jo",
        -9.673451276768114
      ],
      [
        "nce",
        -9.674414105156972
      ],
      [
        "▁appear",
        -9.674457926271995
      ],
      [
        "▁Inter",
        -9.674619499161363
      ],
      [
        "uring",
        -9.675018966183305
      ],
      [
        "▁perfect",
        -9.675352428158533
      ],
      [
        ".\n\nH",
        -9.675568642857542
      ],
      [
        "▁holder",
        -9.67572306526467
      ],
      [
        "▁groups",
        -9.676263177947414
      ],
      [
        "▁standing",
        -9.677102175644578
      ],
      [
        "Z",
        -9.677431289749553
      ],
      [
        "▁card",
        -9.67793488293006
      ],
      [
        "ars",
        -9.67848616771143
      ],
      [
        "▁building,",
        -9.679239700225349
      ],
      [
        "▁training",
        -9.680176219385649
      ],
      [
        "▁lose",
        -9.681991273500337
      ],
      [
        "gram",
        -9.682008725900653
      ],
      [
        "aff",
        -9.682930515940008
      ],
      [
        "▁Island",
        -9.683192495770157
      ],
      [
        "é",
        -9.683301362711973
      ],
      [
        "▁perform",
        -9.683815078407862
      ],
      [
        "▁dance",
        -9.684167526081204
      ],
      [
        "▁centre",
        -9.684244975062716
      ],
      [
        "▁life.",
        -9.684273492982769
      ],
      [
        "ges",
        -9.68427836997339
      ],
      [
        "▁2013",
        -9.684312179853526
      ],
      [
        "los",
        -9.684678870358578
      ],
      [
        "▁Saturday",
        -9.684900058137885
      ],
      [
        "▁Rock",
        -9.68490441172797
      ],
      [
        "!\"",
        -9.685055102060375
      ],
      [
        "▁smaller",
        -9.685377585043664
      ],
      [
        "▁private",
        -9.685700048861303
      ],
      [
        "▁Tuesday",
        -9.68570017822659
      ],
      [
        "▁(I",
        -9.686763914017561
      ],
      [
        "▁plays",
        -9.687121588163485
      ],
      [
        "▁suffer",
        -9.687309939731104
      ],
      [
        "▁Bre",
        -9.68741269302354
      ],
      [
        "▁dry",
        -9.68838699347376
      ],
      [
        "ific",
        -9.688429299972345
      ],
      [
        "▁suit",
        -9.6885234207165
      ],
      [
        "▁Build",
        -9.688934891129538
      ],
      [
        "b).",
        -9.690110254324532
      ],
      [
        "load",
        -9.690784444048557
      ],
      [
        "▁directly",
        -9.691119455075128
      ],
      [
        "▁column",
        -9.691318864742803
      ],
      [
        "▁Sun",
        -9.692280537319089
      ],
      [
        "▁Make",
        -9.692533901326899
      ],
      [
        "▁context:",
        -9.692604002233967
      ],
      [
        "▁par",
        -9.692990552291118
      ],
      [
        "▁translate",
        -9.69302616773166
      ],
      [
        "▁Pick",
        -9.6932072853027
      ],
      [
        "▁involved",
        -9.69335467990372
      ],
      [
        "▁math",
        -9.693604613241513
      ],
      [
        "▁years.",
        -9.694321615184098
      ],
      [
        "▁university",
        -9.694542533498616
      ],
      [
        "▁seem",
        -9.695128176512213
      ],
      [
        "▁remaining",
        -9.69593837786601
      ],
      [
        "▁Ann",
        -9.696175364699112
      ],
      [
        "sti",
        -9.697018063812799
      ],
      [
        "▁remove",
        -9.698078173203436
      ],
      [
        "▁Q",
        -9.69825455964262
      ],
      [
        "▁valid",
        -9.698444877568573
      ],
      [
        "▁$2",
        -9.698680273095658
      ],
      [
        "▁finish",
        -9.699088622631674
      ],
      [
        "uit",
        -9.699897559951909
      ],
      [
        "rm",
        -9.70011405981173
      ],
      [
        "▁camera",
        -9.70029523737355
      ],
      [
        "▁metal",
        -9.700492848888675
      ],
      [
        "▁tour",
        -9.701100496146346
      ],
      [
        "▁actor",
        -9.70126037272161
      ],
      [
        "▁increased",
        -9.701757150698043
      ],
      [
        "▁gift",
        -9.70185034820691
      ],
      [
        "ably",
        -9.701942296510918
      ],
      [
        "▁Although",
        -9.70241313527778
      ],
      [
        "▁Film",
        -9.702697095963806
      ],
      [
        "▁larger",
        -9.703067519640134
      ],
      [
        "des",
        -9.703118847000097
      ],
      [
        "▁feeling",
        -9.703693181587578
      ],
      [
        "▁link",
        -9.70373716789787
      ],
      [
        "▁element",
        -9.704236713556938
      ],
      [
        "-S",
        -9.704281398400227
      ],
      [
        "▁lack",
        -9.704647149550429
      ],
      [
        "rey",
        -9.704865242132604
      ],
      [
        "▁runs",
        -9.705306149776302
      ],
      [
        "▁relation",
        -9.705848598215141
      ],
      [
        "▁eventually",
        -9.705912237045542
      ],
      [
        "▁log",
        -9.705951470974396
      ],
      [
        "▁kept",
        -9.706729435751488
      ],
      [
        "▁studied",
        -9.706729873947458
      ],
      [
        "▁(A",
        -9.706978690797541
      ],
      [
        "▁conduct",
        -9.707138899771675
      ],
      [
        "▁recently",
        -9.707188115380514
      ],
      [
        "▁punctuation",
        -9.707545559454221
      ],
      [
        "▁fill",
        -9.708696593852219
      ],
      [
        "▁Lee",
        -9.70880103298124
      ],
      [
        "▁community",
        -9.709182895612694
      ],
      [
        "win",
        -9.709500407865281
      ],
      [
        "▁pla",
        -9.709859904737508
      ],
      [
        "ming",
        -9.709906060452157
      ],
      [
        "<",
        -9.710002554954777
      ],
      [
        "ough",
        -9.711078775545584
      ],
      [
        "▁year,",
        -9.7112651612622
      ],
      [
        "▁Definition",
        -9.711643929265533
      ],
      [
        "▁respond",
        -9.711644120164888
      ],
      [
        "▁reply",
        -9.71253473691288
      ],
      [
        "▁sha",
        -9.71278380085533
      ],
      [
        "▁sports",
        -9.712795836370912
      ],
      [
        "▁no;",
        -9.713991565797523
      ],
      [
        "▁para",
        -9.714754932989269
      ],
      [
        "▁priceRange",
        -9.714934756018703
      ],
      [
        "▁garden",
        -9.715772386727043
      ],
      [
        "ville",
        -9.715984347223502
      ],
      [
        "▁\"We",
        -9.716299488117265
      ],
      [
        "ches",
        -9.716410077481083
      ],
      [
        "▁Name",
        -9.716471808590095
      ],
      [
        "▁levels",
        -9.71650392970682
      ],
      [
        "gh",
        -9.716606935450786
      ],
      [
        "jo",
        -9.71663818345663
      ],
      [
        "▁Details",
        -9.71695708530389
      ],
      [
        "duction",
        -9.717008783283138
      ],
      [
        "▁changed",
        -9.71705801093546
      ],
      [
        "tern",
        -9.717294191063282
      ],
      [
        "▁dig",
        -9.717310216747798
      ],
      [
        "▁(S",
        -9.717817095468096
      ],
      [
        "▁looks",
        -9.717944788483521
      ],
      [
        "▁2.",
        -9.717966505984258
      ],
      [
        "▁wasn't",
        -9.71920786540981
      ],
      [
        "▁\"It",
        -9.720121380089301
      ],
      [
        "▁border",
        -9.720732922662503
      ],
      [
        "bin",
        -9.720974056102087
      ],
      [
        "▁vs",
        -9.72116556534941
      ],
      [
        "▁recorded",
        -9.721530102717516
      ],
      [
        "▁coast",
        -9.721746626112031
      ],
      [
        "▁Vo",
        -9.72191087049534
      ],
      [
        "place",
        -9.72220841485495
      ],
      [
        "▁self-",
        -9.722298223222136
      ],
      [
        "▁Sal",
        -9.722515863381417
      ],
      [
        "▁Story",
        -9.722752730304467
      ],
      [
        "▁soil",
        -9.723316655932837
      ],
      [
        "ston",
        -9.724158994402242
      ],
      [
        "▁23",
        -9.724287371767547
      ],
      [
        "▁reaction",
        -9.724435967351164
      ],
      [
        "▁debut",
        -9.725624616856951
      ],
      [
        "▁watching",
        -9.725874521711972
      ],
      [
        "▁leaving",
        -9.726538703858623
      ],
      [
        "▁years,",
        -9.72665755365096
      ],
      [
        "▁Roman",
        -9.727088583162317
      ],
      [
        "▁Now",
        -9.727320143212276
      ],
      [
        "▁Obama",
        -9.72737276604251
      ],
      [
        "▁Mike",
        -9.727905040029935
      ],
      [
        "▁Smith",
        -9.728217911165828
      ],
      [
        "▁double",
        -9.728228510960232
      ],
      [
        "▁touch",
        -9.72842849108645
      ],
      [
        "▁Find",
        -9.728851587118733
      ],
      [
        "▁married",
        -9.729050324985835
      ],
      [
        "▁sal",
        -9.72922538449251
      ],
      [
        "▁occur",
        -9.729564279390072
      ],
      [
        "▁sat",
        -9.729649003049122
      ],
      [
        "▁growth",
        -9.730060497033081
      ],
      [
        "▁bike",
        -9.730240392698567
      ],
      [
        "▁arm",
        -9.730428126481854
      ],
      [
        "▁continued",
        -9.730446308547197
      ],
      [
        "book",
        -9.7323531260318
      ],
      [
        "▁dream",
        -9.732394445825669
      ],
      [
        ".\"\nIs",
        -9.7324585575255
      ],
      [
        "▁radio",
        -9.732807481071415
      ],
      [
        "▁achieve",
        -9.73324227237865
      ],
      [
        "▁upon",
        -9.733641964822546
      ],
      [
        "▁learning",
        -9.733922334308652
      ],
      [
        "%",
        -9.734514086124591
      ],
      [
        "s.\"",
        -9.73461309389366
      ],
      [
        "▁degree",
        -9.73491135075053
      ],
      [
        "▁horse",
        -9.734917738275396
      ],
      [
        "▁me.",
        -9.73521359883628
      ],
      [
        "ook",
        -9.736632098647885
      ],
      [
        "▁review?",
        -9.736975236285073
      ],
      [
        "▁items",
        -9.737216239681777
      ],
      [
        "▁distance",
        -9.737799111938322
      ],
      [
        "▁charge",
        -9.737964124434525
      ],
      [
        "▁February",
        -9.738278873730726
      ],
      [
        "▁(19",
        -9.738972134170552
      ],
      [
        "tie",
        -9.739252583116972
      ],
      [
        "▁holding",
        -9.739348183155629
      ],
      [
        "▁pan",
        -9.739596077582984
      ],
      [
        "▁dioxide",
        -9.740901265948832
      ],
      [
        "▁Min",
        -9.742082414010552
      ],
      [
        "▁climate",
        -9.7425067991127
      ],
      [
        "▁critic",
        -9.742837718321056
      ],
      [
        "▁atmosphere",
        -9.74335321285347
      ],
      [
        "ware",
        -9.744209733042997
      ],
      [
        "▁address",
        -9.744250627575248
      ],
      [
        "▁anyone",
        -9.74444676714328
      ],
      [
        "▁France",
        -9.745092475428335
      ],
      [
        "▁nation",
        -9.745187979505001
      ],
      [
        "rank",
        -9.745429002866194
      ],
      [
        "▁mentioned",
        -9.745464346578895
      ],
      [
        "▁kick",
        -9.746524778532883
      ],
      [
        "▁Republican",
        -9.747440141122654
      ],
      [
        "ese",
        -9.747622094427502
      ],
      [
        "▁bird",
        -9.748070217922399
      ],
      [
        "▁singer",
        -9.748180048791252
      ],
      [
        "Which",
        -9.748327907641928
      ],
      [
        "▁types",
        -9.749020850711505
      ],
      [
        "tes",
        -9.749207944962519
      ],
      [
        "vol",
        -9.749278809100996
      ],
      [
        "▁Street",
        -9.749309378830004
      ],
      [
        "▁Sur",
        -9.74962883259376
      ],
      [
        "▁phrase",
        -9.749959224392997
      ],
      [
        "▁rise",
        -9.750025535249046
      ],
      [
        "down",
        -9.750033227770189
      ],
      [
        "aging",
        -9.750285652379777
      ],
      [
        "▁Answer:\n",
        -9.750572494470973
      ],
      [
        "lia",
        -9.751266096217865
      ],
      [
        "▁Han",
        -9.751290438299517
      ],
      [
        "\n(",
        -9.751546280979563
      ],
      [
        "ele",
        -9.75160950272322
      ],
      [
        " ",
        -9.751867192194098
      ],
      [
        "fully",
        -9.751909006208628
      ],
      [
        "▁code",
        -9.752106797286178
      ],
      [
        "▁coach",
        -9.752139299284778
      ],
      [
        "▁village,",
        -9.752156199516516
      ],
      [
        "▁lab",
        -9.752447661166723
      ],
      [
        "▁PersonX",
        -9.752787011490536
      ],
      [
        "▁pieces",
        -9.753885015629152
      ],
      [
        ",”",
        -9.754036308884679
      ],
      [
        "500",
        -9.754675423223636
      ],
      [
        "▁tries",
        -9.755744655995498
      ],
      [
        "▁quarter,",
        -9.7562140926782
      ],
      [
        "▁pot",
        -9.757367751607319
      ],
      [
        "▁C.",
        -9.757449571846633
      ],
      [
        "comm",
        -9.759659306378595
      ],
      [
        "▁Ve",
        -9.760318372114664
      ],
      [
        "▁male",
        -9.761018478060935
      ],
      [
        "▁28",
        -9.761130873656796
      ],
      [
        "▁target",
        -9.761321112730414
      ],
      [
        "fu",
        -9.761346146026867
      ],
      [
        "▁nearly",
        -9.761406593846637
      ],
      [
        "▁addition",
        -9.761412948633483
      ],
      [
        "▁Africa",
        -9.7614827353371
      ],
      [
        "▁cast",
        -9.763646100377077
      ],
      [
        "▁2007",
        -9.763684464468302
      ],
      [
        "▁\"O",
        -9.764153787839934
      ],
      [
        "▁secret",
        -9.764398376325659
      ],
      [
        "ura",
        -9.764434013722902
      ],
      [
        "▁60",
        -9.76526690959979
      ],
      [
        "▁financial",
        -9.767378058033877
      ],
      [
        "reg",
        -9.767496329077563
      ],
      [
        "ers,",
        -9.76831066533257
      ],
      [
        "▁ready",
        -9.768387804617706
      ],
      [
        "▁hat",
        -9.768690887290049
      ],
      [
        "Question:",
        -9.769134862189453
      ],
      [
        "Re",
        -9.769588047742147
      ],
      [
        "▁names",
        -9.770763832258993
      ],
      [
        "▁opened",
        -9.770957447588787
      ],
      [
        "▁request",
        -9.771520513785127
      ],
      [
        "▁description",
        -9.771730144218932
      ],
      [
        "▁newspaper",
        -9.771758973273197
      ],
      [
        "▁movement",
        -9.771837473861325
      ],
      [
        "▁pretty",
        -9.771982967660733
      ],
      [
        "▁global",
        -9.772602400696925
      ],
      [
        "rate",
        -9.772674166398039
      ],
      [
        "▁print",
        -9.772734450096028
      ],
      [
        "▁consist",
        -9.773100337936611
      ],
      [
        "▁particular",
        -9.773498858004444
      ],
      [
        "▁Dr.",
        -9.773748424655544
      ],
      [
        "▁experiment",
        -9.774349780196655
      ],
      [
        "▁\"P",
        -9.774982504688072
      ],
      [
        "▁technology",
        -9.775224661392336
      ],
      [
        "65",
        -9.775230161609539
      ],
      [
        "late",
        -9.775468711134366
      ],
      [
        "▁fear",
        -9.775987641255515
      ],
      [
        "▁\"T",
        -9.776822898503843
      ],
      [
        "▁Cup",
        -9.776831982726058
      ],
      [
        "▁counter",
        -9.776837376965169
      ],
      [
        "▁artist,",
        -9.7769376419456
      ],
      [
        "▁Award",
        -9.776968457606463
      ],
      [
        "▁staff",
        -9.777395591222378
      ],
      [
        "▁thank",
        -9.777453407209446
      ],
      [
        "▁rec",
        -9.777478944170147
      ],
      [
        "III",
        -9.778431891736904
      ],
      [
        "16",
        -9.778681482301021
      ],
      [
        "▁no\n",
        -9.778944756557513
      ],
      [
        "▁2006",
        -9.77897223798459
      ],
      [
        "▁ways",
        -9.779602462560625
      ],
      [
        "▁animal,",
        -9.78100750930593
      ],
      [
        "▁asking",
        -9.781286012786378
      ],
      [
        "▁plant,",
        -9.781863083253114
      ],
      [
        "▁2000",
        -9.78200630188914
      ],
      [
        "▁collection",
        -9.78232615228546
      ],
      [
        "▁ticket",
        -9.78314079767384
      ],
      [
        "tom",
        -9.783270567684212
      ],
      [
        "er's",
        -9.783410047195186
      ],
      [
        "▁article.",
        -9.783550101216875
      ],
      [
        "▁Bi",
        -9.783757966820865
      ],
      [
        "band",
        -9.784233860132296
      ],
      [
        "rel",
        -9.78490587332118
      ],
      [
        "▁ne",
        -9.785135368100974
      ],
      [
        "pet",
        -9.785492392174394
      ],
      [
        "▁challenge",
        -9.785783507424464
      ],
      [
        "lay",
        -9.78598404945922
      ],
      [
        "▁‘",
        -9.786149745021405
      ],
      [
        "\nOptions",
        -9.786365021496156
      ],
      [
        "▁tea",
        -9.786393325384452
      ],
      [
        "▁clothes",
        -9.786685522334453
      ],
      [
        "▁va",
        -9.786722589337094
      ],
      [
        "▁Ed",
        -9.787348865423887
      ],
      [
        "wing",
        -9.787827870198404
      ],
      [
        "▁wish",
        -9.788007359801284
      ],
      [
        "▁driver",
        -9.788123535733249
      ],
      [
        "▁leading",
        -9.788634445815312
      ],
      [
        "erson",
        -9.788902879135744
      ],
      [
        "▁Trans",
        -9.78919986700988
      ],
      [
        "▁planet",
        -9.789239549124005
      ],
      [
        "▁world.",
        -9.78991643897881
      ],
      [
        "▁Over",
        -9.790084590006146
      ],
      [
        "▁wash",
        -9.790919582683138
      ],
      [
        "▁exp",
        -9.791118118944485
      ],
      [
        "▁27",
        -9.791691162189863
      ],
      [
        "▁apartment",
        -9.791764377082647
      ],
      [
        "▁===",
        -9.79199477238966
      ],
      [
        "chan",
        -9.79344388281074
      ],
      [
        "bert",
        -9.793528445473376
      ],
      [
        "gle",
        -9.793730959502351
      ],
      [
        "sure",
        -9.794450091859112
      ],
      [
        "town",
        -9.794461944280219
      ],
      [
        "▁studio",
        -9.794669735045833
      ],
      [
        "▁schools",
        -9.795070141884246
      ],
      [
        "▁plans",
        -9.79554815509702
      ],
      [
        "▁completely",
        -9.79717617066597
      ],
      [
        "▁path",
        -9.797981382304677
      ],
      [
        "▁replaced",
        -9.798395251260619
      ],
      [
        "▁Party",
        -9.798834357073066
      ],
      [
        "▁process:",
        -9.79909962452418
      ],
      [
        "mul",
        -9.799564765870713
      ],
      [
        "▁Language",
        -9.800037626147136
      ],
      [
        "▁Mark",
        -9.80027280167985
      ],
      [
        "▁grand",
        -9.801028107935101
      ],
      [
        "34",
        -9.801204026592615
      ],
      [
        "▁fresh",
        -9.801847995465721
      ],
      [
        "▁west",
        -9.802104523576787
      ],
      [
        "▁Christian",
        -9.803637212007814
      ],
      [
        "▁let's",
        -9.8039248410082
      ],
      [
        "Translate",
        -9.80406217185096
      ],
      [
        "▁article,",
        -9.804194292865212
      ],
      [
        "▁east",
        -9.80457561061383
      ],
      [
        "▁\"L",
        -9.804790141561963
      ],
      [
        "▁clo",
        -9.805336437534528
      ],
      [
        "▁2015",
        -9.805761857604034
      ],
      [
        "pping",
        -9.806027274218282
      ],
      [
        "pac",
        -9.806149018332547
      ],
      [
        "gro",
        -9.80623726271865
      ],
      [
        "▁yes.",
        -9.806491864601096
      ],
      [
        "▁whom",
        -9.806592279035247
      ],
      [
        "ural",
        -9.807150066138755
      ],
      [
        "▁fair",
        -9.807495831804438
      ],
      [
        "▁beach",
        -9.80786717888374
      ],
      [
        "You",
        -9.80894365384798
      ],
      [
        "med",
        -9.809006518598203
      ],
      [
        "RE",
        -9.809237534478003
      ],
      [
        "▁discuss",
        -9.809260388198476
      ],
      [
        "▁No.",
        -9.809781948269013
      ],
      [
        "▁evening",
        -9.809796499670924
      ],
      [
        "▁services",
        -9.810210327608823
      ],
      [
        "▁effective",
        -9.810368011986647
      ],
      [
        "▁condition",
        -9.810467714823954
      ],
      [
        "▁brief",
        -9.810872811856344
      ],
      [
        "▁medical",
        -9.810945918553037
      ],
      [
        "ON",
        -9.811050265653197
      ],
      [
        "▁appeared",
        -9.81137864934858
      ],
      [
        "▁happens",
        -9.81160072295025
      ],
      [
        "▁kid",
        -9.811656181523434
      ],
      [
        "bil",
        -9.811835333885636
      ],
      [
        "ez",
        -9.811895910833393
      ],
      [
        "-1",
        -9.811979071524222
      ],
      [
        "▁huge",
        -9.81199235595091
      ],
      [
        "▁factor",
        -9.812019381163074
      ],
      [
        "▁cancer",
        -9.812056684690212
      ],
      [
        "▁lived",
        -9.813047566028786
      ],
      [
        "▁starts",
        -9.81383293800504
      ],
      [
        "▁paid",
        -9.814924715540617
      ],
      [
        "▁companies",
        -9.816321725818284
      ],
      [
        "▁Next",
        -9.816338640811706
      ],
      [
        "Ma",
        -9.816603209963947
      ],
      [
        "▁Each",
        -9.816737131243842
      ],
      [
        "\nWhat",
        -9.817089450906462
      ],
      [
        "uni",
        -9.817392537207564
      ],
      [
        "▁Note",
        -9.817520721546078
      ],
      [
        ".\n\nA",
        -9.817524798796786
      ],
      [
        "▁problem:",
        -9.81822763572318
      ],
      [
        "▁diet",
        -9.818240132003185
      ],
      [
        "▁industry",
        -9.819060021660825
      ],
      [
        "▁Data",
        -9.819743682583642
      ],
      [
        "gent",
        -9.8225774004487
      ],
      [
        "▁meal",
        -9.822701585524571
      ],
      [
        "east",
        -9.823472989085356
      ],
      [
        "vid",
        -9.824470703965494
      ],
      [
        "▁/",
        -9.824651903623884
      ],
      [
        "▁\"G",
        -9.82532679371851
      ],
      [
        "▁\"a",
        -9.826938031582639
      ],
      [
        "▁announced",
        -9.827069549719774
      ],
      [
        "▁billion",
        -9.827078845058184
      ],
      [
        "▁couldn't",
        -9.82724708878327
      ],
      [
        "▁lake",
        -9.827779821523457
      ],
      [
        "▁judge",
        -9.829187009462427
      ],
      [
        "▁laugh",
        -9.829435462144094
      ],
      [
        "▁(C",
        -9.830023431574723
      ],
      [
        "▁treat",
        -9.830183003251367
      ],
      [
        "▁wear",
        -9.830692450536905
      ],
      [
        "ination",
        -9.831113458167216
      ],
      [
        "▁traditional",
        -9.831537420522904
      ],
      [
        "udi",
        -9.831576117377598
      ],
      [
        "▁beat",
        -9.831685230303332
      ],
      [
        "5%",
        -9.83187404580471
      ],
      [
        "▁organization",
        -9.8320766153237
      ],
      [
        "▁sentence:",
        -9.832084249335518
      ],
      [
        "▁separate",
        -9.832113229706204
      ],
      [
        "▁co-",
        -9.83213808332491
      ],
      [
        "▁shown",
        -9.832614858076944
      ],
      [
        "▁learned",
        -9.832663421383959
      ],
      [
        "▁policy",
        -9.832877389937114
      ],
      [
        "ature",
        -9.833353048642197
      ],
      [
        "meter",
        -9.833962437279505
      ],
      [
        "▁familyFriendly",
        -9.834728455923528
      ],
      [
        "▁square",
        -9.83473122692788
      ],
      [
        "▁crime",
        -9.834750158758105
      ],
      [
        "atch",
        -9.834790260192111
      ],
      [
        "▁work.",
        -9.83509682720872
      ],
      [
        "nate",
        -9.835407709945043
      ],
      [
        "▁Blue",
        -9.83572487149377
      ],
      [
        "rot",
        -9.836017765184529
      ],
      [
        "cap",
        -9.837075961029264
      ],
      [
        "14",
        -9.837542361637835
      ],
      [
        "▁Mil",
        -9.837816391197489
      ],
      [
        "▁News",
        -9.838819071706709
      ],
      [
        "room",
        -9.839260564032315
      ],
      [
        "hen",
        -9.83959351910483
      ],
      [
        "▁scale",
        -9.83965527411463
      ],
      [
        "▁dr",
        -9.840205915844924
      ],
      [
        "▁musical",
        -9.84050732108206
      ],
      [
        "▁Em",
        -9.840558026934096
      ],
      [
        "lad",
        -9.840668794024372
      ],
      [
        "▁Could",
        -9.84128169805312
      ],
      [
        "▁demand",
        -9.841301397676833
      ],
      [
        "lig",
        -9.842428487316475
      ],
      [
        "▁bottle",
        -9.842499351424618
      ],
      [
        "▁birthday",
        -9.842505382047825
      ],
      [
        "13",
        -9.84269685270954
      ],
      [
        "▁je",
        -9.842982332443956
      ],
      [
        "▁Texas",
        -9.843126725540612
      ],
      [
        "▁bra",
        -9.843213141650931
      ],
      [
        "▁Nor",
        -9.843432886263502
      ],
      [
        "▁Summarize",
        -9.843699503131194
      ],
      [
        "▁limit",
        -9.843727804616336
      ],
      [
        "▁growing",
        -9.843752767605334
      ],
      [
        "ken",
        -9.844412905793215
      ],
      [
        "▁answer?",
        -9.844495281545006
      ],
      [
        "ju",
        -9.844854135461976
      ],
      [
        "▁micro",
        -9.845060886596292
      ],
      [
        "tep-by-step",
        -9.845189833596615
      ],
      [
        "shi",
        -9.84567432757627
      ],
      [
        "17",
        -9.846005025774472
      ],
      [
        "When",
        -9.84631129794613
      ],
      [
        "▁immediately",
        -9.846500155384692
      ],
      [
        "tine",
        -9.84678577199086
      ],
      [
        "▁Count",
        -9.847114139646532
      ],
      [
        "vert",
        -9.847234796299965
      ],
      [
        "ological",
        -9.84767963779171
      ],
      [
        "▁Meaning",
        -9.847856689466363
      ],
      [
        "▁spread",
        -9.847960814182544
      ],
      [
        "▁mouth",
        -9.849197892945494
      ],
      [
        "▁waste",
        -9.849216252929814
      ],
      [
        "▁Nu",
        -9.849705926975105
      ],
      [
        "ologist",
        -9.850031950165345
      ],
      [
        "mission",
        -9.850535101416217
      ],
      [
        "▁depend",
        -9.850580793748716
      ],
      [
        "rum",
        -9.851295452529559
      ],
      [
        "▁chart",
        -9.851789465272548
      ],
      [
        "▁recording",
        -9.852455784917126
      ],
      [
        "▁network",
        -9.852540746923378
      ],
      [
        "▁healthy",
        -9.852694460984091
      ],
      [
        "▁sugar",
        -9.852816528835994
      ],
      [
        "▁Ko",
        -9.852857320218225
      ],
      [
        "▁remain",
        -9.852881369647891
      ],
      [
        "▁Wednesday",
        -9.853481935694582
      ],
      [
        "▁Pat",
        -9.853496591589437
      ],
      [
        "ude",
        -9.854186580364427
      ],
      [
        "▁\"F",
        -9.854605853999075
      ],
      [
        "head",
        -9.855331751909425
      ],
      [
        "▁attract",
        -9.855375176333776
      ],
      [
        "▁Canada",
        -9.855587417727246
      ],
      [
        "▁earth",
        -9.855631712504229
      ],
      [
        "▁strange",
        -9.855733542978374
      ],
      [
        "▁Tim",
        -9.855834962589306
      ],
      [
        "▁trees",
        -9.85609427485014
      ],
      [
        "▁yes;",
        -9.857027546577203
      ],
      [
        "▁myself",
        -9.857275982819775
      ],
      [
        "▁interesting",
        -9.857603641491337
      ],
      [
        "ius",
        -9.85830700607306
      ],
      [
        "▁Hill",
        -9.859165067756383
      ],
      [
        "▁flight",
        -9.859713224219256
      ],
      [
        "▁weekend",
        -9.859738266887298
      ],
      [
        "▁sort",
        -9.859856756508265
      ],
      [
        "▁calls",
        -9.860049192867953
      ],
      [
        "▁costs",
        -9.860325569807909
      ],
      [
        "▁harm",
        -9.860445935914917
      ],
      [
        "▁active",
        -9.860565275233899
      ],
      [
        "▁prefer",
        -9.860779000608334
      ],
      [
        "▁Britain",
        -9.86108309969387
      ],
      [
        "80",
        -9.861611046872417
      ],
      [
        "No",
        -9.861876750481862
      ],
      [
        "rain",
        -9.861942409720715
      ],
      [
        "▁relative",
        -9.86204551105031
      ],
      [
        "▁page",
        -9.862195037288593
      ],
      [
        "▁Play",
        -9.862764036963593
      ],
      [
        "▁reached",
        -9.862782615021434
      ],
      [
        "ada",
        -9.86308323149236
      ],
      [
        "▁Mill",
        -9.864769394875566
      ],
      [
        "▁#",
        -9.864826154771919
      ],
      [
        "yard",
        -9.865106217688691
      ],
      [
        "▁\"the",
        -9.865318565849815
      ],
      [
        "▁Romanian",
        -9.865423431371905
      ],
      [
        "▁respect",
        -9.865867824139958
      ],
      [
        "burg",
        -9.866274253236746
      ],
      [
        "▁presented",
        -9.86740545549576
      ],
      [
        "▁26",
        -9.867468384952627
      ],
      [
        "▁credit",
        -9.867790611531882
      ],
      [
        "▁Fi",
        -9.86889557997105
      ],
      [
        "▁wild",
        -9.868943239126372
      ],
      [
        "▁again.",
        -9.869479078540333
      ],
      [
        "itch",
        -9.869554524451015
      ],
      [
        "▁activity",
        -9.869802208499546
      ],
      [
        "▁prove",
        -9.870259239915907
      ],
      [
        ".com",
        -9.870528273565105
      ],
      [
        "▁College",
        -9.871631159484895
      ],
      [
        "rest",
        -9.871682590637835
      ],
      [
        "shire",
        -9.871704937341804
      ],
      [
        "ets",
        -9.871719677586213
      ],
      [
        "▁mine",
        -9.87289951097889
      ],
      [
        "▁Well",
        -9.873547089568516
      ],
      [
        "▁Hall",
        -9.873901084956778
      ],
      [
        "▁string",
        -9.874340394017116
      ],
      [
        "▁Music",
        -9.874371306153519
      ],
      [
        "▁families",
        -9.874525329140598
      ],
      [
        "▁spoke",
        -9.874606034653135
      ],
      [
        "ette",
        -9.874731100082037
      ],
      [
        "▁passed",
        -9.875055120627792
      ],
      [
        "▁victim",
        -9.875492460703008
      ],
      [
        "col",
        -9.875649402841688
      ],
      [
        "36",
        -9.876195743272586
      ],
      [
        "stitution",
        -9.876489183228582
      ],
      [
        "▁display",
        -9.876660257919394
      ],
      [
        "▁pool",
        -9.877345448542219
      ],
      [
        "▁driving",
        -9.877507218736291
      ],
      [
        "ock",
        -9.877960025712216
      ],
      [
        "▁press",
        -9.878058612014424
      ],
      [
        "▁district",
        -9.87839940420756
      ],
      [
        "▁finding",
        -9.879123141729483
      ],
      [
        "▁scar",
        -9.879846535693424
      ],
      [
        "oli",
        -9.880170193259143
      ],
      [
        "▁Food",
        -9.88024143110873
      ],
      [
        "dam",
        -9.880386978412877
      ],
      [
        "▁Word",
        -9.880451015488765
      ],
      [
        "▁electric",
        -9.880912680700217
      ],
      [
        "▁strength",
        -9.881314850691671
      ],
      [
        "▁sad",
        -9.881430770233306
      ],
      [
        "48",
        -9.881453425991594
      ],
      [
        "▁issues",
        -9.881622266369018
      ],
      [
        "▁necessary",
        -9.882288532989424
      ],
      [
        "til",
        -9.882447466732724
      ],
      [
        "▁Shi",
        -9.882867040814652
      ],
      [
        "▁salt",
        -9.883600515925508
      ],
      [
        "ji",
        -9.884350642199282
      ],
      [
        "▁chair",
        -9.884359069116842
      ],
      [
        "▁question?",
        -9.884512326720175
      ],
      [
        "nne",
        -9.884727581039488
      ],
      [
        "▁hunt",
        -9.884732005134762
      ],
      [
        "Do",
        -9.885096502799739
      ],
      [
        "▁milk",
        -9.88522463617548
      ],
      [
        "▁lunch",
        -9.885230519753513
      ],
      [
        "▁shape",
        -9.885244526195885
      ],
      [
        "▁Space",
        -9.885281409659013
      ],
      [
        "▁treatment",
        -9.885460426001774
      ],
      [
        "▁direct",
        -9.886052698725656
      ],
      [
        "▁recover",
        -9.88606223701522
      ],
      [
        "▁loved",
        -9.886641677225697
      ],
      [
        "▁cases",
        -9.887021344738084
      ],
      [
        "▁fuel",
        -9.887195229273772
      ],
      [
        "▁International",
        -9.888150800949536
      ],
      [
        "▁Thursday",
        -9.888150818590017
      ],
      [
        "▁Korea",
        -9.888435906240165
      ],
      [
        "ST",
        -9.889035773102707
      ],
      [
        "▁breath",
        -9.889133916438677
      ],
      [
        "▁showed",
        -9.889396957862427
      ],
      [
        "Thank",
        -9.89028402054998
      ],
      [
        "▁About",
        -9.890347322695728
      ],
      [
        "▁Union",
        -9.892309851414819
      ],
      [
        "▁federal",
        -9.893065219002171
      ],
      [
        "▁Business",
        -9.893065633995077
      ],
      [
        "▁Once",
        -9.893231714968383
      ],
      [
        "▁onto",
        -9.89360375670865
      ],
      [
        "ummary:",
        -9.89362466891647
      ],
      [
        "▁sexual",
        -9.893643942580466
      ],
      [
        "▁favorite",
        -9.894127134206595
      ],
      [
        "▁Good",
        -9.895476970221083
      ],
      [
        "▁guitar",
        -9.895761820824337
      ],
      [
        "now",
        -9.89583962623764
      ],
      [
        "▁dialogue",
        -9.896020970827145
      ],
      [
        "▁heavy",
        -9.896031233813403
      ],
      [
        "▁application",
        -9.896039672422797
      ],
      [
        "\nSelect",
        -9.89621621979208
      ],
      [
        "▁elements",
        -9.897085874439242
      ],
      [
        "▁Long",
        -9.897159558325125
      ],
      [
        "▁don’t",
        -9.898148918823168
      ],
      [
        "▁Group",
        -9.898264265083395
      ],
      [
        "▁opening",
        -9.898430187518729
      ],
      [
        "del",
        -9.899042010297745
      ],
      [
        "▁perturbation",
        -9.89927484372679
      ],
      [
        "▁gone",
        -9.899358341894795
      ],
      [
        "▁stress",
        -9.899590760944312
      ],
      [
        "▁weak",
        -9.89974442156149
      ],
      [
        "az",
        -9.900583109337518
      ],
      [
        "oper",
        -9.90098014211961
      ],
      [
        "▁bottom",
        -9.901966033887494
      ],
      [
        "▁Jim",
        -9.902285256035128
      ],
      [
        "▁God",
        -9.902460264904402
      ],
      [
        "??",
        -9.902486989639613
      ],
      [
        "▁hole",
        -9.90293034544398
      ],
      [
        "▁Ya",
        -9.903654664787226
      ],
      [
        "▁tend",
        -9.904797721444385
      ],
      [
        "AR",
        -9.904852351632245
      ],
      [
        "'.",
        -9.904862241238305
      ],
      [
        "▁Bob",
        -9.904903820868551
      ],
      [
        "▁2016",
        -9.905230757000176
      ],
      [
        "▁Olympic",
        -9.905946619213525
      ],
      [
        "▁Student",
        -9.905948048528597
      ],
      [
        "case",
        -9.907268195288754
      ],
      [
        "▁values",
        -9.907315798552977
      ],
      [
        "▁plate",
        -9.907517534180016
      ],
      [
        "run",
        -9.908039166466265
      ],
      [
        "▁article:\n\n",
        -9.908118976934915
      ],
      [
        "▁\"No",
        -9.90881610675022
      ],
      [
        "ache",
        -9.90885122756752
      ],
      [
        "▁purpose",
        -9.908943625755196
      ],
      [
        "▁fell",
        -9.909165470318438
      ],
      [
        "▁Since",
        -9.91011592543829
      ],
      [
        "▁Port",
        -9.91020693313235
      ],
      [
        "▁generally",
        -9.910306989806735
      ],
      [
        "▁Year",
        -9.9103698175913
      ],
      [
        "rator",
        -9.910612131491021
      ],
      [
        "▁greater",
        -9.911639775367558
      ],
      [
        "▁hundred",
        -9.911949773731957
      ],
      [
        "▁Impact",
        -9.911953993627062
      ],
      [
        "▁Problem",
        -9.911960322861638
      ],
      [
        "▁Court",
        -9.912010887662726
      ],
      [
        "▁allowed",
        -9.9123778402613
      ],
      [
        "▁exactly",
        -9.912910955964119
      ],
      [
        "▁History",
        -9.913040286480152
      ],
      [
        "64",
        -9.913880567641627
      ],
      [
        "gal",
        -9.914706693143184
      ],
      [
        "▁nine",
        -9.915145377122954
      ],
      [
        "\n\nA",
        -9.91537769002792
      ],
      [
        "▁highest",
        -9.915441165124037
      ],
      [
        "▁height",
        -9.915484383948648
      ],
      [
        "▁bat",
        -9.91589117581367
      ],
      [
        "▁completed",
        -9.916645207874126
      ],
      [
        "▁Every",
        -9.916932458498255
      ],
      [
        "▁Google",
        -9.916980592174516
      ],
      [
        "▁stories",
        -9.917003722783294
      ],
      [
        "▁Queen",
        -9.918009605625596
      ],
      [
        "▁Center",
        -9.918081788805065
      ],
      [
        "49",
        -9.918348098467321
      ],
      [
        "▁Mer",
        -9.918563632929558
      ],
      [
        "▁multiple",
        -9.919110977504168
      ],
      [
        "▁plane",
        -9.919651640492441
      ],
      [
        "▁requires",
        -9.919651805621118
      ],
      [
        "▁rich",
        -9.919916206674435
      ],
      [
        "▁easily",
        -9.920010211318338
      ],
      [
        "33",
        -9.920064532792699
      ],
      [
        "▁Wi",
        -9.920088910031556
      ],
      [
        "roll",
        -9.920465915033514
      ],
      [
        "▁Identify",
        -9.921029765228432
      ],
      [
        "78",
        -9.921467734210324
      ],
      [
        "titude",
        -9.92272802082828
      ],
      [
        "own",
        -9.923474048849208
      ],
      [
        "▁em",
        -9.923928140491851
      ],
      [
        "▁Give",
        -9.92449788592563
      ],
      [
        "▁notice",
        -9.924854952107875
      ],
      [
        "▁dogs",
        -9.925322309787639
      ],
      [
        "▁him,",
        -9.925336839581217
      ],
      [
        "▁central",
        -9.926108252736366
      ],
      [
        "▁Ly",
        -9.926165687014247
      ],
      [
        "▁no.",
        -9.92618970874062
      ],
      [
        "uk",
        -9.926427924132105
      ],
      [
        "lock",
        -9.926484086665031
      ],
      [
        "▁buying",
        -9.926643530784698
      ],
      [
        "BC",
        -9.927595907241397
      ],
      [
        "▁So,",
        -9.928044411748754
      ],
      [
        "▁km",
        -9.92840014114837
      ],
      [
        "▁Wood",
        -9.928939449902801
      ],
      [
        "▁it?",
        -9.930009267726756
      ],
      [
        "▁stock",
        -9.930180167571047
      ],
      [
        "▁Japan",
        -9.930311235784925
      ],
      [
        "ers.",
        -9.93067140443181
      ],
      [
        "▁Information",
        -9.931202974844089
      ],
      [
        "▁crowd",
        -9.931208136598737
      ],
      [
        ".;\n",
        -9.931365603473878
      ],
      [
        "▁William",
        -9.931396858560966
      ],
      [
        "▁origin",
        -9.932112422732208
      ],
      [
        "▁straight",
        -9.932224552664032
      ],
      [
        "▁Char",
        -9.932674401083203
      ],
      [
        "▁hang",
        -9.932688927500271
      ],
      [
        "▁Service",
        -9.933248695155502
      ],
      [
        "\nD",
        -9.933249875404123
      ],
      [
        "▁that's",
        -9.933416921992707
      ],
      [
        "▁reasonable",
        -9.93342174144792
      ],
      [
        "▁Harry",
        -9.933485126381282
      ],
      [
        "dom",
        -9.934061125076909
      ],
      [
        "▁magazine",
        -9.934274246072693
      ],
      [
        "▁muscle",
        -9.934278172525364
      ],
      [
        "▁audience",
        -9.934279448653593
      ],
      [
        "▁served",
        -9.934312880972463
      ],
      [
        "▁later,",
        -9.93446285670601
      ],
      [
        "more",
        -9.935504334796686
      ],
      [
        "ili",
        -9.935656254464384
      ],
      [
        "▁increases",
        -9.936171410253888
      ],
      [
        "▁Super",
        -9.936316840471488
      ],
      [
        "llo",
        -9.937391921211944
      ],
      [
        "▁required",
        -9.93744326927289
      ],
      [
        "▁appearance",
        -9.937751885062
      ],
      [
        "▁Art",
        -9.937774206729857
      ],
      [
        "▁Australian",
        -9.937812419028248
      ],
      [
        "▁goals",
        -9.938575938259138
      ],
      [
        "▁inform",
        -9.938679238945658
      ],
      [
        "y're",
        -9.939203716891193
      ],
      [
        "▁layer",
        -9.940418943183294
      ],
      [
        "▁officials",
        -9.940488537251216
      ],
      [
        "▁winter",
        -9.940748560649023
      ],
      [
        "▁Mad",
        -9.941011420879107
      ],
      [
        "▁cities",
        -9.941011439664543
      ],
      [
        "ivity",
        -9.941036269674088
      ],
      [
        "▁detailed",
        -9.94148901537096
      ],
      [
        "▁chief",
        -9.942518151882876
      ],
      [
        "▁school.",
        -9.942667769828356
      ],
      [
        "IS",
        -9.942745114318408
      ],
      [
        "▁boys",
        -9.943313958705165
      ],
      [
        "hop",
        -9.943330662996994
      ],
      [
        "sec",
        -9.94374282125317
      ],
      [
        "▁Will",
        -9.94440858935864
      ],
      [
        "▁caught",
        -9.944892735024048
      ],
      [
        "▁arrive",
        -9.944949575025587
      ],
      [
        "▁behavior",
        -9.945626284917498
      ],
      [
        "▁vehicle",
        -9.946664702680238
      ],
      [
        "▁mostly",
        -9.947366590038486
      ],
      [
        "cast",
        -9.94787579502827
      ],
      [
        "▁emb",
        -9.947910853693266
      ],
      [
        "▁2005",
        -9.948212332300761
      ],
      [
        "▁closed",
        -9.949070768570337
      ],
      [
        "▁lungs",
        -9.949797413221166
      ],
      [
        "pic",
        -9.94996546776467
      ],
      [
        "▁features",
        -9.95016256743266
      ],
      [
        "▁Val",
        -9.950197349032743
      ],
      [
        "38",
        -9.950437278309938
      ],
      [
        "▁places",
        -9.950494743127045
      ],
      [
        "▁eggs",
        -9.950833127874025
      ],
      [
        "▁wave",
        -9.950836444578549
      ],
      [
        "▁stars",
        -9.95147932473772
      ],
      [
        "▁won't",
        -9.95189981938146
      ],
      [
        "▁replace",
        -9.951982434963247
      ],
      [
        "▁sentence?",
        -9.95205957897871
      ],
      [
        "▁Mag",
        -9.952142765224858
      ],
      [
        "▁activities",
        -9.952918017799362
      ],
      [
        "▁auto",
        -9.953804917111292
      ],
      [
        "▁More",
        -9.953920864184958
      ],
      [
        "▁spa",
        -9.953923834287991
      ],
      [
        "▁neighbor",
        -9.953925888630833
      ],
      [
        "▁tip",
        -9.954957199646
      ],
      [
        "OR",
        -9.955136457919096
      ],
      [
        "▁bur",
        -9.95517733053633
      ],
      [
        "▁cars",
        -9.956084765230006
      ],
      [
        "graph",
        -9.957420361874554
      ],
      [
        "▁glass",
        -9.95792368160387
      ],
      [
        "▁Greek",
        -9.958204616265657
      ],
      [
        ".”",
        -9.958761619998135
      ],
      [
        "▁associated",
        -9.959030983432724
      ],
      [
        "▁Work",
        -9.95940473046081
      ],
      [
        "▁finished",
        -9.959615611749921
      ],
      [
        "▁purchase",
        -9.960135017010941
      ],
      [
        "▁speech",
        -9.960152403993767
      ],
      [
        "▁trouble",
        -9.960263383289954
      ],
      [
        "duct",
        -9.960855254261311
      ],
      [
        "▁Up",
        -9.960886672619313
      ],
      [
        "▁\"He",
        -9.9610802046253
      ],
      [
        "▁opinion",
        -9.961317403184694
      ],
      [
        "▁Richard",
        -9.961318648367191
      ],
      [
        "▁Sports",
        -9.961483112971372
      ],
      [
        "▁tall",
        -9.961679760939237
      ],
      [
        "37",
        -9.962106025794256
      ],
      [
        "▁bri",
        -9.962378699365969
      ],
      [
        "▁nu",
        -9.962492521085903
      ],
      [
        "atory",
        -9.962615399074798
      ],
      [
        "▁cheap",
        -9.963441872959342
      ],
      [
        "▁foreign",
        -9.96348130322147
      ],
      [
        "’re",
        -9.96423468132014
      ],
      [
        "▁birds",
        -9.964703296565707
      ],
      [
        "pick",
        -9.965481464892427
      ],
      [
        "▁web",
        -9.96553619001482
      ],
      [
        "▁holiday",
        -9.965543243745648
      ],
      [
        "$$$",
        -9.965543500334693
      ],
      [
        "▁Christmas",
        -9.96660264419037
      ],
      [
        "▁require",
        -9.96676050509733
      ],
      [
        "tical",
        -9.96841664764208
      ],
      [
        "pre",
        -9.969625275379222
      ],
      [
        "▁Calculat",
        -9.97010910402846
      ],
      [
        "fit",
        -9.970314310474311
      ],
      [
        "▁asks",
        -9.9707884986518
      ],
      [
        "▁teenage",
        -9.970878845582483
      ],
      [
        "▁1,",
        -9.971023095996719
      ],
      [
        "▁Their",
        -9.971774881368109
      ],
      [
        "▁Bri",
        -9.97185193657907
      ],
      [
        "mag",
        -9.971861150399773
      ],
      [
        "▁particularly",
        -9.971888479558405
      ],
      [
        "▁patient",
        -9.972802903990626
      ],
      [
        "▁designed",
        -9.972898754042975
      ],
      [
        "▁problem?",
        -9.973006175153843
      ],
      [
        "list",
        -9.973178238024094
      ],
      [
        "phone",
        -9.973659900658559
      ],
      [
        "She",
        -9.973902512213833
      ],
      [
        "ised",
        -9.974070242502815
      ],
      [
        "▁Germany",
        -9.975085865390575
      ],
      [
        "▁trail",
        -9.975219091699397
      ],
      [
        "▁Jackson",
        -9.975476582209154
      ],
      [
        "▁proper",
        -9.97586938193471
      ],
      [
        "▁Health",
        -9.976252628636374
      ],
      [
        "▁apply",
        -9.976516988522086
      ],
      [
        "▁sand",
        -9.976533102774308
      ],
      [
        "▁flat",
        -9.977778418044979
      ],
      [
        "▁helped",
        -9.977901606267679
      ],
      [
        "How",
        -9.978185812087531
      ],
      [
        "▁convert",
        -9.978872483184261
      ],
      [
        "▁classes",
        -9.978968297113237
      ],
      [
        "▁forced",
        -9.979026284872663
      ],
      [
        "berg",
        -9.979537023994272
      ],
      [
        "▁Apple",
        -9.979909182159567
      ],
      [
        "▁executive",
        -9.98047668511887
      ],
      [
        "bar",
        -9.980542706125703
      ],
      [
        ".\nTeacher",
        -9.980690265315857
      ],
      [
        "▁bear",
        -9.981321128693438
      ],
      [
        "▁competition",
        -9.98155198481501
      ],
      [
        "▁forms",
        -9.981880936066615
      ],
      [
        "▁dollars",
        -9.982629917688444
      ],
      [
        "onic",
        -9.982726957467364
      ],
      [
        "▁Article",
        -9.983443104021678
      ],
      [
        "▁multi",
        -9.98356971874131
      ],
      [
        "▁constant",
        -9.983719522532933
      ],
      [
        "▁shoot",
        -9.983814694798362
      ],
      [
        "▁concept",
        -9.98534720066775
      ],
      [
        "▁forces",
        -9.985347335754268
      ],
      [
        "▁interested",
        -9.985516486114722
      ],
      [
        "ground",
        -9.986838044889236
      ],
      [
        "▁waiting",
        -9.987238230431212
      ],
      [
        "water",
        -9.987283587344837
      ],
      [
        "▁reports",
        -9.987676068485202
      ],
      [
        "▁List",
[...]
